{
  "version": "1.0",
  "truncation": null,
  "padding": null,
  "added_tokens": [
    {
      "id": 0,
      "content": "<|endofdoc|>",
      "single_word": false,
      "lstrip": false,
      "rstrip": false,
      "normalized": false,
      "special": true
    }
  ],
  "normalizer": null,
  "pre_tokenizer": {
    "type": "ByteLevel",
    "add_prefix_space": true,
    "trim_offsets": true,
    "use_regex": true
  },
  "post_processor": null,
  "decoder": {
    "type": "ByteLevel",
    "add_prefix_space": true,
    "trim_offsets": true,
    "use_regex": true
  },
  "model": {
    "type": "BPE",
    "dropout": null,
    "unk_token": null,
    "continuing_subword_prefix": null,
    "end_of_word_suffix": null,
    "fuse_unk": false,
    "byte_fallback": false,
    "ignore_merges": false,
    "vocab": {
      "<|endofdoc|>": 0,
      "!": 1,
      "\"": 2,
      "#": 3,
      "$": 4,
      "%": 5,
      "&": 6,
      "'": 7,
      "(": 8,
      ")": 9,
      "*": 10,
      "+": 11,
      ",": 12,
      "-": 13,
      ".": 14,
      "/": 15,
      "0": 16,
      "1": 17,
      "2": 18,
      "3": 19,
      "4": 20,
      "5": 21,
      "6": 22,
      "7": 23,
      "8": 24,
      "9": 25,
      ":": 26,
      ";": 27,
      "<": 28,
      "=": 29,
      ">": 30,
      "?": 31,
      "@": 32,
      "A": 33,
      "B": 34,
      "C": 35,
      "D": 36,
      "E": 37,
      "F": 38,
      "G": 39,
      "H": 40,
      "I": 41,
      "J": 42,
      "K": 43,
      "L": 44,
      "M": 45,
      "N": 46,
      "O": 47,
      "P": 48,
      "Q": 49,
      "R": 50,
      "S": 51,
      "T": 52,
      "U": 53,
      "V": 54,
      "W": 55,
      "X": 56,
      "Y": 57,
      "Z": 58,
      "[": 59,
      "\\": 60,
      "]": 61,
      "^": 62,
      "_": 63,
      "`": 64,
      "a": 65,
      "b": 66,
      "c": 67,
      "d": 68,
      "e": 69,
      "f": 70,
      "g": 71,
      "h": 72,
      "i": 73,
      "j": 74,
      "k": 75,
      "l": 76,
      "m": 77,
      "n": 78,
      "o": 79,
      "p": 80,
      "q": 81,
      "r": 82,
      "s": 83,
      "t": 84,
      "u": 85,
      "v": 86,
      "w": 87,
      "x": 88,
      "y": 89,
      "z": 90,
      "{": 91,
      "|": 92,
      "}": 93,
      "~": 94,
      "¡": 95,
      "¢": 96,
      "£": 97,
      "¤": 98,
      "¥": 99,
      "¦": 100,
      "§": 101,
      "¨": 102,
      "©": 103,
      "ª": 104,
      "«": 105,
      "¬": 106,
      "®": 107,
      "¯": 108,
      "°": 109,
      "±": 110,
      "²": 111,
      "³": 112,
      "´": 113,
      "µ": 114,
      "¶": 115,
      "·": 116,
      "¸": 117,
      "¹": 118,
      "º": 119,
      "»": 120,
      "¼": 121,
      "½": 122,
      "¾": 123,
      "¿": 124,
      "À": 125,
      "Á": 126,
      "Â": 127,
      "Ã": 128,
      "Ä": 129,
      "Å": 130,
      "Æ": 131,
      "Ç": 132,
      "È": 133,
      "É": 134,
      "Ê": 135,
      "Ë": 136,
      "Ì": 137,
      "Í": 138,
      "Î": 139,
      "Ï": 140,
      "Ð": 141,
      "Ñ": 142,
      "Ò": 143,
      "Ó": 144,
      "Ô": 145,
      "Õ": 146,
      "Ö": 147,
      "×": 148,
      "Ø": 149,
      "Ù": 150,
      "Ú": 151,
      "Û": 152,
      "Ü": 153,
      "Ý": 154,
      "Þ": 155,
      "ß": 156,
      "à": 157,
      "á": 158,
      "â": 159,
      "ã": 160,
      "ä": 161,
      "å": 162,
      "æ": 163,
      "ç": 164,
      "è": 165,
      "é": 166,
      "ê": 167,
      "ë": 168,
      "ì": 169,
      "í": 170,
      "î": 171,
      "ï": 172,
      "ð": 173,
      "ñ": 174,
      "ò": 175,
      "ó": 176,
      "ô": 177,
      "õ": 178,
      "ö": 179,
      "÷": 180,
      "ø": 181,
      "ù": 182,
      "ú": 183,
      "û": 184,
      "ü": 185,
      "ý": 186,
      "þ": 187,
      "ÿ": 188,
      "Ā": 189,
      "ā": 190,
      "Ă": 191,
      "ă": 192,
      "Ą": 193,
      "ą": 194,
      "Ć": 195,
      "ć": 196,
      "Ĉ": 197,
      "ĉ": 198,
      "Ċ": 199,
      "ċ": 200,
      "Č": 201,
      "č": 202,
      "Ď": 203,
      "ď": 204,
      "Đ": 205,
      "đ": 206,
      "Ē": 207,
      "ē": 208,
      "Ĕ": 209,
      "ĕ": 210,
      "Ė": 211,
      "ė": 212,
      "Ę": 213,
      "ę": 214,
      "Ě": 215,
      "ě": 216,
      "Ĝ": 217,
      "ĝ": 218,
      "Ğ": 219,
      "ğ": 220,
      "Ġ": 221,
      "ġ": 222,
      "Ģ": 223,
      "ģ": 224,
      "Ĥ": 225,
      "ĥ": 226,
      "Ħ": 227,
      "ħ": 228,
      "Ĩ": 229,
      "ĩ": 230,
      "Ī": 231,
      "ī": 232,
      "Ĭ": 233,
      "ĭ": 234,
      "Į": 235,
      "į": 236,
      "İ": 237,
      "ı": 238,
      "Ĳ": 239,
      "ĳ": 240,
      "Ĵ": 241,
      "ĵ": 242,
      "Ķ": 243,
      "ķ": 244,
      "ĸ": 245,
      "Ĺ": 246,
      "ĺ": 247,
      "Ļ": 248,
      "ļ": 249,
      "Ľ": 250,
      "ľ": 251,
      "Ŀ": 252,
      "ŀ": 253,
      "Ł": 254,
      "ł": 255,
      "Ń": 256,
      "ng": 257,
      "ang": 258,
      "na": 259,
      "Ġs": 260,
      "Ġm": 261,
      "an": 262,
      "Ġp": 263,
      "Ġna": 264,
      "at": 265,
      "Ġsa": 266,
      "al": 267,
      "ag": 268,
      "Ġk": 269,
      "Ġng": 270,
      "ay": 271,
      "in": 272,
      "it": 273,
      "ar": 274,
      "Ġang": 275,
      "as": 276,
      "Ġt": 277,
      "il": 278,
      "ga": 279,
      "ak": 280,
      "Ġb": 281,
      "am": 282,
      "is": 283,
      "on": 284,
      "ing": 285,
      "Ġmga": 286,
      "Ġn": 287,
      "er": 288,
      "Ġl": 289,
      "Ġd": 290,
      "ah": 291,
      "ap": 292,
      "Ġat": 293,
      "ong": 294,
      "Ġh": 295,
      "ab": 296,
      "ul": 297,
      "Ġpag": 298,
      "iy": 299,
      "Ġay": 300,
      "ina": 301,
      "aw": 302,
      "es": 303,
      "um": 304,
      "or": 305,
      "en": 306,
      "ib": 307,
      "ig": 308,
      "ad": 309,
      "un": 310,
      "ung": 311,
      "us": 312,
      "âĢ": 313,
      "ĠA": 314,
      "ik": 315,
      "Ġis": 316,
      "os": 317,
      "ĠP": 318,
      "ĠM": 319,
      "ito": 320,
      "re": 321,
      "ĠS": 322,
      "Ġg": 323,
      "Ġpar": 324,
      "im": 325,
      "di": 326,
      "ip": 327,
      "ro": 328,
      "Ġw": 329,
      "Ġo": 330,
      "to": 331,
      "ana": 332,
      "Ġc": 333,
      "Ġmag": 334,
      "Ġnag": 335,
      "ut": 336,
      "Ġko": 337,
      "iya": 338,
      "ur": 339,
      "indi": 340,
      "ilang": 341,
      "Ġpara": 342,
      "Ġkan": 343,
      "Ġak": 344,
      "and": 345,
      "up": 346,
      "Ġisang": 347,
      "el": 348,
      "uh": 349,
      "ot": 350,
      "Ġf": 351,
      "id": 352,
      "ala": 353,
      "ol": 354,
      "Ġth": 355,
      "ĠB": 356,
      "ĠK": 357,
      "ic": 358,
      "Ġpa": 359,
      "uk": 360,
      "ĠN": 361,
      "Ġito": 362,
      "ĠI": 363,
      "yo": 364,
      "ed": 365,
      "ĠD": 366,
      "ir": 367,
      "ok": 368,
      "ĠC": 369,
      "Ġni": 370,
      "ent": 371,
      "Ġmay": 372,
      "et": 373,
      "ya": 374,
      "Ġkung": 375,
      "ĠT": 376,
      "Ġin": 377,
      "Ġhindi": 378,
      "Ġr": 379,
      "yon": 380,
      "ac": 381,
      "ila": 382,
      "Ġnam": 383,
      "Ġnak": 384,
      "Ġka": 385,
      "em": 386,
      "ano": 387,
      "ĠH": 388,
      "od": 389,
      "om": 390,
      "Ġmas": 391,
      "ub": 392,
      "ug": 393,
      "Ġma": 394,
      "ion": 395,
      "Ġsi": 396,
      "yang": 397,
      "Ġmak": 398,
      "Ġpang": 399,
      "Ġmal": 400,
      "ĠL": 401,
      "le": 402,
      "ih": 403,
      "Ġkay": 404,
      "Ġthe": 405,
      "Ġpagk": 406,
      "Ġlang": 407,
      "Ġib": 408,
      "Ġre": 409,
      "ula": 410,
      "Ġmo": 411,
      "Ġta": 412,
      "Ġmat": 413,
      "Ġe": 414,
      "ita": 415,
      "ĠG": 416,
      "Ġako": 417,
      "ĠAng": 418,
      "una": 419,
      "Ġkas": 420,
      "Ġup": 421,
      "ant": 422,
      "..": 423,
      "ĠâĢ": 424,
      "ahil": 425,
      "alag": 426,
      "ĠR": 427,
      "Ġiy": 428,
      "sa": 429,
      "Ġto": 430,
      "uw": 431,
      "Ġpam": 432,
      "Ġnang": 433,
      "Ġniya": 434,
      "Ġupang": 435,
      "ta": 436,
      "Ġpina": 437,
      "âĢĻ": 438,
      "Ġ(": 439,
      "alang": 440,
      "Ġga": 441,
      "iw": 442,
      "Ġof": 443,
      "awa": 444,
      "Ġbuh": 445,
      "âĢĿ": 446,
      "apat": 447,
      "ĠE": 448,
      "alam": 449,
      "Ġnaman": 450,
      "ari": 451,
      "ek": 452,
      "og": 453,
      "Ġ1": 454,
      "alak": 455,
      "Ġy": 456,
      "Ġpro": 457,
      "ob": 458,
      "Ġdahil": 459,
      "Ġkanyang": 460,
      "Ġsiya": 461,
      "ec": 462,
      "ĠF": 463,
      "Ġand": 464,
      "Ġnat": 465,
      "Ġkat": 466,
      "aba": 467,
      "Ġit": 468,
      "ĠJ": 469,
      "Ġ2": 470,
      "ama": 471,
      "Ġa": 472,
      "oy": 473,
      "pap": 474,
      "ili": 475,
      "Ġar": 476,
      "ter": 477,
      "Ġbag": 478,
      "aya": 479,
      "ahat": 480,
      "ata": 481,
      "tr": 482,
      "ahan": 483,
      "ers": 484,
      "apag": 485,
      "iyang": 486,
      "Ang": 487,
      "ve": 488,
      "amang": 489,
      "Ġrin": 490,
      "Ġmula": 491,
      "ero": 492,
      "ow": 493,
      "Ġkam": 494,
      "ino": 495,
      "wa": 496,
      "ĠW": 497,
      "aram": 498,
      "ayan": 499,
      "Ġiyong": 500,
      "asyon": 501,
      "angg": 502,
      "orm": 503,
      "op": 504,
      "aka": 505,
      "Ġal": 506,
      "Ġdin": 507,
      "ie": 508,
      "apos": 509,
      "est": 510,
      "ch": 511,
      "Ġan": 512,
      "ilip": 513,
      "Ġtao": 514,
      "ess": 515,
      "ĠO": 516,
      "Ġmah": 517,
      "ist": 518,
      "ĠâĢľ": 519,
      "Ġlahat": 520,
      "Ġnito": 521,
      "Ġbuhok": 522,
      "und": 523,
      "Ġkanilang": 524,
      "yan": 525,
      "itan": 526,
      "ation": 527,
      "ine": 528,
      "ate": 529,
      "Ġpana": 530,
      "ha": 531,
      "imb": 532,
      "ep": 533,
      "Ġmaa": 534,
      "alaga": 535,
      "oon": 536,
      "he": 537,
      "Ġpo": 538,
      "Ġpagb": 539,
      "Ġdi": 540,
      "Ġor": 541,
      "00": 542,
      "ans": 543,
      "ast": 544,
      "ayo": 545,
      "bi": 546,
      "Ġpr": 547,
      "Ġkal": 548,
      "aring": 549,
      "Ġtr": 550,
      "ibig": 551,
      "Ġkah": 552,
      "nal": 553,
      "ĠSa": 554,
      "Ġyo": 555,
      "Ġsila": 556,
      "mit": 557,
      "Ġiba": 558,
      "Ġip": 559,
      "Ġv": 560,
      "ĠU": 561,
      "ayon": 562,
      "Ġum": 563,
      "awan": 564,
      "Ġkab": 565,
      "anda": 566,
      "Ġmab": 567,
      "Ġnila": 568,
      "ating": 569,
      "ara": 570,
      "st": 571,
      "lo": 572,
      "ment": 573,
      "unt": 574,
      "Ġas": 575,
      "Ġlamang": 576,
      "ly": 577,
      "alan": 578,
      "Ġkap": 579,
      "Ġam": 580,
      "Ġpat": 581,
      "abang": 582,
      "Ġpags": 583,
      "yong": 584,
      "dib": 585,
      "th": 586,
      "Ġtul": 587,
      "Ġman": 588,
      "Ġon": 589,
      "Ġgina": 590,
      "Ġwalang": 591,
      "Ġsina": 592,
      "Ġpagpap": 593,
      "imp": 594,
      "int": 595,
      "Ġkaya": 596,
      "ali": 597,
      "Ġpamam": 598,
      "ver": 599,
      "ce": 600,
      "Ġpaano": 601,
      "Ġba": 602,
      "abas": 603,
      "ens": 604,
      "ka": 605,
      "Ġnap": 606,
      "aman": 607,
      "Ġlo": 608,
      "ungk": 609,
      "ial": 610,
      "ort": 611,
      "ud": 612,
      "Ġkum": 613,
      "Ġpagt": 614,
      "ibdib": 615,
      "Ġil": 616,
      "la": 617,
      "anan": 618,
      "Ġtum": 619,
      "Ġbah": 620,
      "ilangan": 621,
      "uso": 622,
      "aling": 623,
      "eg": 624,
      "Ġfor": 625,
      "Ġkar": 626,
      "eb": 627,
      "unit": 628,
      "end": 629,
      "Ġmask": 630,
      "io": 631,
      "Ġdibdib": 632,
      "alaw": 633,
      "Ġbilang": 634,
      "abi": 635,
      "âĢľ": 636,
      "Ġisa": 637,
      "Ġnga": 638,
      "Ġno": 639,
      "uro": 640,
      "ika": 641,
      "Ġi": 642,
      "Ġaking": 643,
      "ĠV": 644,
      "Ġst": 645,
      "agd": 646,
      "Ġsar": 647,
      "Ġlum": 648,
      "Ġpagl": 649,
      "ill": 650,
      "asa": 651,
      "Ġsp": 652,
      "Ġmap": 653,
      "Ġbat": 654,
      "ulong": 655,
      "ain": 656,
      "alo": 657,
      "uha": 658,
      "Ġsum": 659,
      "ia": 660,
      "art": 661,
      "ho": 662,
      "Ġaraw": 663,
      "AN": 664,
      "asan": 665,
      "Ġmagk": 666,
      "Sa": 667,
      "alaki": 668,
      "Ġmaram": 669,
      "ins": 670,
      "ulat": 671,
      "usto": 672,
      "qu": 673,
      "ind": 674,
      "Ġmata": 675,
      "Ġmaaaring": 676,
      "Ġgum": 677,
      "akit": 678,
      "ity": 679,
      "atapos": 680,
      "anak": 681,
      "alik": 682,
      "eng": 683,
      "ado": 684,
      "Ġyung": 685,
      "ihan": 686,
      "Ġano": 687,
      "Ġmad": 688,
      "Ġpamamag": 689,
      "igh": 690,
      "oc": 691,
      "Ġdito": 692,
      "Ġ\"": 693,
      "Ġpero": 694,
      "tor": 695,
      "inas": 696,
      "ust": 697,
      "Ġ-": 698,
      "Ġpan": 699,
      "ĠAn": 700,
      "Ġnatin": 701,
      "ĠIn": 702,
      "hon": 703,
      "vie": 704,
      "Ġbuhay": 705,
      "Ġngayon": 706,
      "ard": 707,
      "agdag": 708,
      "Ġpagga": 709,
      "hh": 710,
      "Ġtag": 711,
      "akas": 712,
      "Ġbe": 713,
      "ri": 714,
      "Ġibang": 715,
      "agi": 716,
      "alim": 717,
      "Ġsin": 718,
      "Ġyou": 719,
      "Ġdapat": 720,
      "...": 721,
      "Ġkong": 722,
      "Ġ20": 723,
      "ago": 724,
      "les": 725,
      "uan": 726,
      "idad": 727,
      "uri": 728,
      "alat": 729,
      "Ġsaan": 730,
      "Ġpinak": 731,
      "iyos": 732,
      "Ġnya": 733,
      "ĠPag": 734,
      "ulang": 735,
      "ĠAt": 736,
      "Ġparas": 737,
      "inat": 738,
      "arap": 739,
      "amit": 740,
      "ide": 741,
      "ungkol": 742,
      "ĠHindi": 743,
      "Ġnoong": 744,
      "Ġnags": 745,
      "ĠAl": 746,
      "Ġpl": 747,
      "Ġbum": 748,
      "ice": 749,
      "Ġnamin": 750,
      "Ġpak": 751,
      "Ġcon": 752,
      "ost": 753,
      "Ġkami": 754,
      "anap": 755,
      "Ġsal": 756,
      "Ġwala": 757,
      "Ġmong": 758,
      "ma": 759,
      "Ġbu": 760,
      "Ġmuk": 761,
      "Ġpamamagitan": 762,
      "unan": 763,
      "inig": 764,
      "iv": 765,
      "ĠY": 766,
      "Ġ3": 767,
      "mot": 768,
      "amp": 769,
      "Ġmaging": 770,
      "ite": 771,
      "Ġlab": 772,
      "Ġnasa": 773,
      "ento": 774,
      "Ġating": 775,
      "view": 776,
      "Ġkasi": 777,
      "anggang": 778,
      "ĠKung": 779,
      "Ġilang": 780,
      "Ġkina": 781,
      "Ġimp": 782,
      "âĢ¦": 783,
      "iging": 784,
      "Ġj": 785,
      "Ġsh": 786,
      "Ġch": 787,
      "unod": 788,
      "ff": 789,
      "ith": 790,
      "Ġkahit": 791,
      "Ġme": 792,
      "ĠDiyos": 793,
      "Ġik": 794,
      "Ġac": 795,
      "Ġpal": 796,
      "imbang": 797,
      "Ġsak": 798,
      "uc": 799,
      "awala": 800,
      "Ġun": 801,
      "pl": 802,
      "Ġina": 803,
      "Ġtungkol": 804,
      "ulo": 805,
      "aa": 806,
      "iling": 807,
      "Ġcom": 808,
      "ery": 809,
      "if": 810,
      "aroon": 811,
      "Ġkanya": 812,
      "ĠMas": 813,
      "ive": 814,
      "Ġres": 815,
      "Ġpagkak": 816,
      "Ġban": 817,
      "alawang": 818,
      "agawa": 819,
      "Ġhal": 820,
      "ra": 821,
      "ect": 822,
      "ĠCh": 823,
      "per": 824,
      "aro": 825,
      "Ġtimbang": 826,
      "Ġthat": 827,
      "ure": 828,
      "Ġniyang": 829,
      "Ġbaw": 830,
      "ĠMay": 831,
      "Ġbaba": 832,
      "Ġha": 833,
      "ura": 834,
      "ex": 835,
      "ema": 836,
      "Ġpum": 837,
      "angk": 838,
      "Ġpinag": 839,
      "Ġkon": 840,
      "ey": 841,
      "uhan": 842,
      "Ġmukha": 843,
      "ihin": 844,
      "angga": 845,
      "ism": 846,
      "Ġhabang": 847,
      "Ġhanggang": 848,
      "ore": 849,
      "Ġpagp": 850,
      "Ġwh": 851,
      "ĠPilip": 852,
      "Ġanak": 853,
      "nan": 854,
      "Ġag": 855,
      "Ġfac": 856,
      "amb": 857,
      "itong": 858,
      "Ġsiyang": 859,
      "Ġalam": 860,
      ".âĢĿ": 861,
      "ian": 862,
      "Ġnas": 863,
      "res": 864,
      "isip": 865,
      "amah": 866,
      "isyon": 867,
      "ump": 868,
      "Ġhe": 869,
      "Ġakong": 870,
      "Ġloob": 871,
      "are": 872,
      "iz": 873,
      "Ġtaon": 874,
      "uto": 875,
      "lang": 876,
      "ĠPang": 877,
      "Ġtaong": 878,
      "Ġex": 879,
      "uti": 880,
      "Ġkapag": 881,
      "abah": 882,
      "ĠâĢĺ": 883,
      "Ġper": 884,
      "Ġbagay": 885,
      "ks": 886,
      "Ġsuso": 887,
      "ight": 888,
      "Ġnagb": 889,
      "IN": 890,
      "Ġap": 891,
      "ipag": 892,
      "Ġpanahon": 893,
      "Ġakin": 894,
      "'t": 895,
      "Ġpas": 896,
      "akat": 897,
      "mp": 898,
      "Ġsab": 899,
      "uli": 900,
      "da": 901,
      "han": 902,
      "igit": 903,
      "ĠMar": 904,
      "ue": 905,
      "Ġginaga": 906,
      "Ġpap": 907,
      "ear": 908,
      "Ġreview": 909,
      "Ġtalaga": 910,
      "Ġbata": 911,
      "anong": 912,
      "usay": 913,
      "Ġtulad": 914,
      "te": 915,
      "Ġworm": 916,
      "uloy": 917,
      "Ġtayo": 918,
      "ry": 919,
      "Ġkatawan": 920,
      "Ġgan": 921,
      "ies": 922,
      "Ġde": 923,
      "usap": 924,
      "Ġmaraming": 925,
      "Ġngunit": 926,
      "Ġnab": 927,
      "Ġmali": 928,
      "alit": 929,
      "Ġbul": 930,
      "ayag": 931,
      "ilala": 932,
      "alagang": 933,
      "Ġaming": 934,
      "irap": 935,
      "Ġpin": 936,
      "Ġiyon": 937,
      "pek": 938,
      "all": 939,
      "iko": 940,
      "ell": 941,
      "Ġmar": 942,
      "Ġpagh": 943,
      "Ġmang": 944,
      "her": 945,
      "Ġitong": 946,
      "sing": 947,
      "Ġco": 948,
      "inal": 949,
      "andang": 950,
      "Ġbahay": 951,
      "Ġtat": 952,
      "ĠNag": 953,
      "no": 954,
      "aran": 955,
      "Ġkasama": 956,
      "Ġwith": 957,
      "man": 958,
      "Ġkag": 959,
      "Ġmags": 960,
      "Ġnaging": 961,
      "emb": 962,
      "Ġad": 963,
      "Ġab": 964,
      "inis": 965,
      "Ġbansa": 966,
      "ibigay": 967,
      "Ġbawat": 968,
      "ew": 969,
      "Ġ201": 970,
      "isa": 971,
      "ĠIs": 972,
      "ĠIto": 973,
      ").": 974,
      "co": 975,
      "Ġpres": 976,
      "Ġprod": 977,
      "ilis": 978,
      "ulit": 979,
      "ĠâĢĵ": 980,
      "atag": 981,
      "Ġpagkatapos": 982,
      "Ġbago": 983,
      "apit": 984,
      "ack": 985,
      "ilan": 986,
      "Ġdaw": 987,
      "Ġnar": 988,
      "anggap": 989,
      "ayong": 990,
      "alaman": 991,
      "Ġbabae": 992,
      "Ġnagp": 993,
      "Ġnagt": 994,
      "Ġoras": 995,
      "Ġnagk": 996,
      "Ġsarili": 997,
      "Ġlik": 998,
      "do": 999,
      "ream": 1000,
      "ult": 1001,
      "Ġparaan": 1002,
      "Ġbuong": 1003,
      "ord": 1004,
      "Ġgusto": 1005,
      "ugar": 1006,
      "pag": 1007,
      "Ġbig": 1008,
      "alamang": 1009,
      "Ġgaw": 1010,
      "ugan": 1011,
      "ĠMag": 1012,
      "Ġare": 1013,
      "yal": 1014,
      "ays": 1015,
      "ase": 1016,
      "Ġmalak": 1017,
      "Ġdis": 1018,
      "abaho": 1019,
      "Ġgamit": 1020,
      "Ġmaliit": 1021,
      "ime": 1022,
      "Ġdum": 1023,
      "Ġdal": 1024,
      "Ġmaaari": 1025,
      "syon": 1026,
      "Ġop": 1027,
      "aan": 1028,
      "Ġ5": 1029,
      "Ġdalawang": 1030,
      "Ġed": 1031,
      "anag": 1032,
      "ional": 1033,
      "hing": 1034,
      "Ġkailangan": 1035,
      "arang": 1036,
      "Ġpos": 1037,
      "inag": 1038,
      "ck": 1039,
      "ork": 1040,
      "ood": 1041,
      "bo": 1042,
      "bl": 1043,
      "umang": 1044,
      "Ġilalim": 1045,
      "!!": 1046,
      "tion": 1047,
      "imula": 1048,
      "Ġmam": 1049,
      "dia": 1050,
      "awag": 1051,
      "akita": 1052,
      "pat": 1053,
      "ere": 1054,
      "Ġkang": 1055,
      "Ġhum": 1056,
      "ilya": 1057,
      "Ġlib": 1058,
      "roon": 1059,
      "pan": 1060,
      "Ġ4": 1061,
      "uhay": 1062,
      "ĠNg": 1063,
      "Ġser": 1064,
      "Ġwe": 1065,
      "Ġspot": 1066,
      "age": 1067,
      "aga": 1068,
      "aral": 1069,
      "Ġsig": 1070,
      "Ġso": 1071,
      "ungan": 1072,
      "Ġnil": 1073,
      "ĠMga": 1074,
      "alis": 1075,
      "uko": 1076,
      "Ġlugar": 1077,
      "rom": 1078,
      "Ġsya": 1079,
      "ente": 1080,
      "Ġlaban": 1081,
      "atay": 1082,
      "gr": 1083,
      "unta": 1084,
      "Kung": 1085,
      "ingg": 1086,
      "Ġkaniyang": 1087,
      "alas": 1088,
      "ko": 1089,
      "Ġtin": 1090,
      "iwala": 1091,
      "iyak": 1092,
      "AL": 1093,
      "ikita": 1094,
      "agdagan": 1095,
      "ĠPh": 1096,
      "Ġbagong": 1097,
      "ĠAr": 1098,
      "anga": 1099,
      "asok": 1100,
      "--": 1101,
      "Ġsup": 1102,
      "inab": 1103,
      "Ġmagb": 1104,
      "Ġiyo": 1105,
      "Ġlangis": 1106,
      "Ġgr": 1107,
      "oto": 1108,
      "mer": 1109,
      "Ġsabi": 1110,
      "com": 1111,
      "Ġkayo": 1112,
      "adong": 1113,
      "Ġkanila": 1114,
      "Ġhalamang": 1115,
      "so": 1116,
      "Ġinter": 1117,
      "undo": 1118,
      "Ġnot": 1119,
      "singaw": 1120,
      "agal": 1121,
      "isyo": 1122,
      "alita": 1123,
      "log": 1124,
      "uwag": 1125,
      "san": 1126,
      "Ġnakak": 1127,
      "Ġunang": 1128,
      "utan": 1129,
      "Ġ19": 1130,
      "igay": 1131,
      "uling": 1132,
      "Ġproduk": 1133,
      "ulan": 1134,
      "tib": 1135,
      "ary": 1136,
      "ris": 1137,
      "Ġkak": 1138,
      "line": 1139,
      "ĠDi": 1140,
      "Ġpart": 1141,
      "Ġsus": 1142,
      "Ġparang": 1143,
      "Ġcan": 1144,
      "Ġnakat": 1145,
      "dam": 1146,
      "ena": 1147,
      "Ġmy": 1148,
      "arawan": 1149,
      ",âĢĿ": 1150,
      "Ġmagp": 1151,
      "ites": 1152,
      "ismo": 1153,
      "av": 1154,
      "Hindi": 1155,
      "use": 1156,
      "Ġeh": 1157,
      "uno": 1158,
      "ick": 1159,
      "awak": 1160,
      "Ġbahagi": 1161,
      "ati": 1162,
      "ons": 1163,
      "Ġbin": 1164,
      "ilit": 1165,
      "Ġnagl": 1166,
      "hang": 1167,
      "Ġbas": 1168,
      "Ġyour": 1169,
      "Ġkasal": 1170,
      "ON": 1171,
      "ugna": 1172,
      "olo": 1173,
      "ĠPilipinas": 1174,
      "ahin": 1175,
      "eh": 1176,
      "ĠUn": 1177,
      "Ġpagbab": 1178,
      "iba": 1179,
      "unay": 1180,
      "uo": 1181,
      "Ġgawin": 1182,
      "ach": 1183,
      "Ġparasito": 1184,
      "ink": 1185,
      "ement": 1186,
      "Ġnagpap": 1187,
      "ĠSt": 1188,
      "Ġkamay": 1189,
      "Ġthis": 1190,
      "Ġpagkawala": 1191,
      "ĠMask": 1192,
      "Ġsilang": 1193,
      "Ġnin": 1194,
      "Ġbalat": 1195,
      "ose": 1196,
      "anay": 1197,
      "Ġgag": 1198,
      "Ġnaka": 1199,
      "ubl": 1200,
      "Ġbit": 1201,
      "oo": 1202,
      "Ġuri": 1203,
      "Ġpagpapalaki": 1204,
      "Ġgawa": 1205,
      "ayun": 1206,
      "ada": 1207,
      "Ġbakit": 1208,
      "abing": 1209,
      "uhin": 1210,
      "Ġmakak": 1211,
      "AT": 1212,
      "Ġmatapos": 1213,
      "Ġpaggamot": 1214,
      "Ġnan": 1215,
      "Ġsinabi": 1216,
      "Ġbut": 1217,
      "Ġby": 1218,
      "ayang": 1219,
      "Ġlalo": 1220,
      "kat": 1221,
      "ĠThe": 1222,
      "ile": 1223,
      "Ġro": 1224,
      "inaw": 1225,
      "eta": 1226,
      "ee": 1227,
      "iwang": 1228,
      "Ġhigit": 1229,
      "ira": 1230,
      "iyan": 1231,
      "Ġbayan": 1232,
      "Ġpagd": 1233,
      "one": 1234,
      "ilipp": 1235,
      "ish": 1236,
      "emp": 1237,
      "awalan": 1238,
      "me": 1239,
      "ulad": 1240,
      "ible": 1241,
      "ular": 1242,
      "igt": 1243,
      "Ġes": 1244,
      "Ġkuko": 1245,
      "nat": 1246,
      "Ġbuw": 1247,
      "Ġanumang": 1248,
      "ĠPero": 1249,
      "Ġsub": 1250,
      "insan": 1251,
      "out": 1252,
      "Ġlalaki": 1253,
      "Ġbulate": 1254,
      "nap": 1255,
      "ato": 1256,
      "Ġpah": 1257,
      "long": 1258,
      "AG": 1259,
      "ingin": 1260,
      "port": 1261,
      "iyon": 1262,
      "ante": 1263,
      "Pag": 1264,
      "Ġhin": 1265,
      "yay": 1266,
      "uring": 1267,
      "Ġle": 1268,
      "Ġpw": 1269,
      "Ġtub": 1270,
      "urg": 1271,
      "Ġlup": 1272,
      "ikal": 1273,
      "Ġpala": 1274,
      "),": 1275,
      "ark": 1276,
      "Ġepek": 1277,
      "ĠKaya": 1278,
      "ista": 1279,
      "Ġnilang": 1280,
      "Ġrel": 1281,
      "ines": 1282,
      "Ġkun": 1283,
      "aki": 1284,
      "Ġpamilya": 1285,
      "Ġginawa": 1286,
      "Ġmalaking": 1287,
      "ook": 1288,
      "ansin": 1289,
      "aano": 1290,
      "hi": 1291,
      "iss": 1292,
      "Ġtak": 1293,
      "AR": 1294,
      "Ġyun": 1295,
      "Ġcl": 1296,
      "able": 1297,
      "Ġnal": 1298,
      "ANG": 1299,
      "aaral": 1300,
      "Ġikaw": 1301,
      "air": 1302,
      "Ġsinas": 1303,
      "Ġsakit": 1304,
      "Ġmundo": 1305,
      "Ġpakik": 1306,
      "Ġcream": 1307,
      "ĠPro": 1308,
      "Ġsana": 1309,
      "ome": 1310,
      "Ġprobl": 1311,
      "our": 1312,
      "Ġparasites": 1313,
      "ibigan": 1314,
      "Ġring": 1315,
      "Ġel": 1316,
      "ahang": 1317,
      "inah": 1318,
      "Ġpresyo": 1319,
      "ulay": 1320,
      "Mga": 1321,
      "umb": 1322,
      "Ġwas": 1323,
      "Ġsabihin": 1324,
      "Ġpig": 1325,
      "'s": 1326,
      "ĠNa": 1327,
      "ĠPhilipp": 1328,
      "ulog": 1329,
      "ilipino": 1330,
      "ahah": 1331,
      "ts": 1332,
      "Ġpagkain": 1333,
      "inan": 1334,
      "ire": 1335,
      "Ġant": 1336,
      "||": 1337,
      "itang": 1338,
      "mas": 1339,
      "iwanag": 1340,
      "ress": 1341,
      "Ġfacial": 1342,
      "Ġmin": 1343,
      "yar": 1344,
      "Ġus": 1345,
      "ahe": 1346,
      "Ġsas": 1347,
      "Ġen": 1348,
      "Ìĥ": 1349,
      "ical": 1350,
      "ence": 1351,
      "Ġpagsas": 1352,
      "Ġdo": 1353,
      "lam": 1354,
      "ond": 1355,
      "Ġpinakam": 1356,
      "Ġfrom": 1357,
      "Ġwill": 1358,
      "Ġtinat": 1359,
      "Ġnagh": 1360,
      "Nag": 1361,
      "Ġ6": 1362,
      "Ġnapak": 1363,
      "ich": 1364,
      "Ġout": 1365,
      "rol": 1366,
      "alaking": 1367,
      "ugo": 1368,
      "awang": 1369,
      "Ġhave": 1370,
      "ede": 1371,
      "ace": 1372,
      "000": 1373,
      "oses": 1374,
      "Ġall": 1375,
      "ne": 1376,
      "ĠAs": 1377,
      "Ġkin": 1378,
      "Ġfre": 1379,
      "Ġpers": 1380,
      "AS": 1381,
      "ors": 1382,
      "eral": 1383,
      "Ġyan": 1384,
      "iti": 1385,
      "20": 1386,
      "ilangang": 1387,
      "ami": 1388,
      "Ġnitong": 1389,
      "Ġmarami": 1390,
      "iga": 1391,
      "Ġbab": 1392,
      "alay": 1393,
      "Ġart": 1394,
      "Ġtunay": 1395,
      "Ġtrabaho": 1396,
      "ideo": 1397,
      "ayos": 1398,
      "agamit": 1399,
      "Ġmana": 1400,
      "gan": 1401,
      "Ġ10": 1402,
      "Ġest": 1403,
      "ĠQ": 1404,
      "Ġsan": 1405,
      "imbawa": 1406,
      "Ġkom": 1407,
      "act": 1408,
      "ĠMan": 1409,
      "Ġins": 1410,
      "lim": 1411,
      "Ġher": 1412,
      "bay": 1413,
      "po": 1414,
      "Ġdating": 1415,
      "Ġkaysa": 1416,
      "ance": 1417,
      "ĠKa": 1418,
      "Ġpanana": 1419,
      "Ġgumawa": 1420,
      "ER": 1421,
      "vel": 1422,
      "ĠPangino": 1423,
      "ual": 1424,
      "pir": 1425,
      "Ġbuwan": 1426,
      "Ġdoon": 1427,
      "Ġnating": 1428,
      "Ġbuk": 1429,
      "Ġginagawa": 1430,
      "Ġdahilan": 1431,
      "isin": 1432,
      "Ġprodukto": 1433,
      "Ġisip": 1434,
      "Ġpagiging": 1435,
      "Ġnoon": 1436,
      "Ġpab": 1437,
      "ont": 1438,
      "Ġpagbaba": 1439,
      "edyo": 1440,
      "iwan": 1441,
      "ulot": 1442,
      "unang": 1443,
      "awin": 1444,
      "agay": 1445,
      "araan": 1446,
      "onal": 1447,
      "pe": 1448,
      "Ġmagt": 1449,
      "ulugan": 1450,
      "Ġbang": 1451,
      "Ġ'": 1452,
      "Ġsc": 1453,
      "Ġmayroon": 1454,
      "AM": 1455,
      "Ġ200": 1456,
      "Ġkw": 1457,
      "âĢĶ": 1458,
      "AY": 1459,
      "hin": 1460,
      "usan": 1461,
      "Ġnais": 1462,
      "Ġsag": 1463,
      "yayari": 1464,
      "ĠCom": 1465,
      "ahala": 1466,
      "reat": 1467,
      "ĠKan": 1468,
      "yari": 1469,
      "upo": 1470,
      "Ġpand": 1471,
      "Ġtime": 1472,
      "Ġasawa": 1473,
      "amdam": 1474,
      "Ġtubig": 1475,
      "daman": 1476,
      "Ġpagm": 1477,
      "Ġmagiging": 1478,
      "Ġonline": 1479,
      "ge": 1480,
      "Ġagad": 1481,
      "ass": 1482,
      "Ġtal": 1483,
      "Ġ7": 1484,
      "Ġkil": 1485,
      "inak": 1486,
      "apang": 1487,
      "Ġte": 1488,
      "Ġut": 1489,
      "19": 1490,
      "rang": 1491,
      "ĠIt": 1492,
      "ukan": 1493,
      "Ġaw": 1494,
      "Ġpagkakata": 1495,
      "usyon": 1496,
      "Ġbr": 1497,
      "Ġinyong": 1498,
      "along": 1499,
      "Ġprogr": 1500,
      "Ġninyo": 1501,
      "eed": 1502,
      "erm": 1503,
      "atang": 1504,
      "Ġayon": 1505,
      "Ġmahusay": 1506,
      "Ġpuso": 1507,
      "era": 1508,
      ".\"": 1509,
      "ake": 1510,
      "Ġmabilis": 1511,
      "ĠNat": 1512,
      "Ġraw": 1513,
      "Ġneg": 1514,
      "apatid": 1515,
      "Ã¡": 1516,
      "Ġedad": 1517,
      "usin": 1518,
      "Ġnamang": 1519,
      "ĠMa": 1520,
      "Ġ.": 1521,
      "ĠTr": 1522,
      "Ġqu": 1523,
      "own": 1524,
      "Ġmapag": 1525,
      "aban": 1526,
      "Ġpigment": 1527,
      "Ġmuna": 1528,
      "ela": 1529,
      "Ġpaggamit": 1530,
      "riend": 1531,
      "enc": 1532,
      "Ġgamot": 1533,
      "tong": 1534,
      "ikong": 1535,
      "abaw": 1536,
      "ory": 1537,
      "ĠCity": 1538,
      "ĠJo": 1539,
      "Ġtoto": 1540,
      "let": 1541,
      "ĠHe": 1542,
      "ugh": 1543,
      "Ġproblema": 1544,
      "Ġpinakamah": 1545,
      "pit": 1546,
      "esus": 1547,
      "Ġpaa": 1548,
      "Ġmataas": 1549,
      "Ġlim": 1550,
      "Ġnah": 1551,
      "Ġkita": 1552,
      "alin": 1553,
      "asama": 1554,
      "abot": 1555,
      "Ġim": 1556,
      "atan": 1557,
      "Ġgo": 1558,
      "abay": 1559,
      "Ġreg": 1560,
      "Ġlaro": 1561,
      "form": 1562,
      "ld": 1563,
      "Ġsam": 1564,
      "Ġkundi": 1565,
      "ikha": 1566,
      "alabas": 1567,
      "Ġimporm": 1568,
      "ural": 1569,
      "apon": 1570,
      "uku": 1571,
      "ou": 1572,
      "wang": 1573,
      "alaro": 1574,
      "Ġpati": 1575,
      "Ġkaibigan": 1576,
      "araming": 1577,
      "Ġmagkaroon": 1578,
      "mm": 1579,
      "Ġpre": 1580,
      "Ġrec": 1581,
      "Ġhalos": 1582,
      "irst": 1583,
      "Ġpera": 1584,
      "ĠNo": 1585,
      "Ġsob": 1586,
      "rist": 1587,
      "igan": 1588,
      "ĠEs": 1589,
      "Ġpangalan": 1590,
      "amina": 1591,
      "Ġdalawa": 1592,
      "IL": 1593,
      "uter": 1594,
      "Ġoff": 1595,
      "ahit": 1596,
      "urang": 1597,
      "abag": 1598,
      "ting": 1599,
      "igil": 1600,
      "its": 1601,
      "ĠTh": 1602,
      "sh": 1603,
      "ene": 1604,
      "unahing": 1605,
      "Ġvideo": 1606,
      "iran": 1607,
      "Ġtalagang": 1608,
      "Ayon": 1609,
      "inggo": 1610,
      "pang": 1611,
      "hiya": 1612,
      "Ġweb": 1613,
      "IT": 1614,
      "ye": 1615,
      "Ġsalita": 1616,
      "Ġkinaka": 1617,
      "uting": 1618,
      "Ġsy": 1619,
      "Ġmakat": 1620,
      "Ġinil": 1621,
      "cess": 1622,
      "ahanap": 1623,
      "elik": 1624,
      "May": 1625,
      "va": 1626,
      "Ġmakita": 1627,
      "yer": 1628,
      "Ġmer": 1629,
      "Ġnakita": 1630,
      "Ġmagandang": 1631,
      "Ġpatuloy": 1632,
      "ident": 1633,
      "init": 1634,
      "aal": 1635,
      "uwa": 1636,
      "Ġbre": 1637,
      "bang": 1638,
      "alth": 1639,
      "uld": 1640,
      "inang": 1641,
      "anasan": 1642,
      "Ġkaso": 1643,
      "Ġkad": 1644,
      "lat": 1645,
      "roong": 1646,
      "Ġnung": 1647,
      "Ġpagsus": 1648,
      "hhhh": 1649,
      "Ġ8": 1650,
      "Ġour": 1651,
      "Ġharap": 1652,
      "à¦": 1653,
      "anc": 1654,
      "ĠSh": 1655,
      "sik": 1656,
      "ĠMaa": 1657,
      "ĠDahil": 1658,
      "ming": 1659,
      "ulta": 1660,
      "Ġnaw": 1661,
      "Ġamin": 1662,
      "app": 1663,
      "old": 1664,
      "Ġnana": 1665,
      "enta": 1666,
      "ĠPara": 1667,
      "Ġshow": 1668,
      ",\"": 1669,
      "rit": 1670,
      "adala": 1671,
      "ĠPilipino": 1672,
      "ĠNak": 1673,
      "ert": 1674,
      "Ġpul": 1675,
      "inga": 1676,
      "lad": 1677,
      "uman": 1678,
      "uot": 1679,
      "ugnay": 1680,
      "Ġgamitin": 1681,
      "Ġpuw": 1682,
      "ĠRe": 1683,
      "Ġ9": 1684,
      "iyo": 1685,
      "10": 1686,
      "Ġyear": 1687,
      "Ġmagl": 1688,
      "Ġlarawan": 1689,
      "Ġulo": 1690,
      "Ġpangk": 1691,
      "Ġlupa": 1692,
      "arating": 1693,
      "Ġtatlong": 1694,
      "Ġbaka": 1695,
      "Ġalisin": 1696,
      "ign": 1697,
      "sod": 1698,
      "NG": 1699,
      "Ġlag": 1700,
      "ataas": 1701,
      "utin": 1702,
      "At": 1703,
      "Ġkuw": 1704,
      "Ġdire": 1705,
      "umpay": 1706,
      "atak": 1707,
      "ĠEn": 1708,
      "iniwala": 1709,
      "ct": 1710,
      "ily": 1711,
      "ibang": 1712,
      "Ġbar": 1713,
      "eks": 1714,
      "Ġpangunahing": 1715,
      "Ġpant": 1716,
      "Ġkl": 1717,
      "ĠAno": 1718,
      "Ġbatang": 1719,
      "Ġmuli": 1720,
      "inap": 1721,
      "Ġgagawin": 1722,
      "row": 1723,
      "unawa": 1724,
      "Ġhair": 1725,
      "cho": 1726,
      "ako": 1727,
      "angailangan": 1728,
      "uy": 1729,
      "Ġepekto": 1730,
      "uwi": 1731,
      "Ġimpormasyon": 1732,
      "ĠPanginoon": 1733,
      "__": 1734,
      "ustr": 1735,
      "Ġbak": 1736,
      "ĠAnd": 1737,
      "ĠNgunit": 1738,
      "Ġgabi": 1739,
      "Ġwika": 1740,
      "ife": 1741,
      "hy": 1742,
      "imple": 1743,
      "Is": 1744,
      "Ġnagm": 1745,
      "Ġkaming": 1746,
      "atas": 1747,
      "osyo": 1748,
      "Ġhuwag": 1749,
      "Ġganitong": 1750,
      "Ġtanong": 1751,
      "Ġpinaka": 1752,
      "Ġdes": 1753,
      "ash": 1754,
      "Ġsand": 1755,
      "Ġginagamit": 1756,
      "Ġsapag": 1757,
      "ĠNG": 1758,
      "Mag": 1759,
      "Ġpalig": 1760,
      "urog": 1761,
      "Ġface": 1762,
      "Ġgaya": 1763,
      "Ġkabilang": 1764,
      "ics": 1765,
      "ĠSi": 1766,
      "Ġtulong": 1767,
      "Ġsariling": 1768,
      "Ġbal": 1769,
      "nak": 1770,
      "tim": 1771,
      "Ġserb": 1772,
      "lay": 1773,
      "ĠZ": 1774,
      "hn": 1775,
      "ĠDe": 1776,
      "Ġtrans": 1777,
      "ext": 1778,
      "Ġmore": 1779,
      "Ġnagd": 1780,
      "Ġinyo": 1781,
      "igtas": 1782,
      "pes": 1783,
      "Ġwork": 1784,
      "Ġbl": 1785,
      "Ġmakapag": 1786,
      "akan": 1787,
      "Ġpelik": 1788,
      "Ġkasaluku": 1789,
      "Ġpost": 1790,
      "iisip": 1791,
      "ĠSan": 1792,
      "Ġbatas": 1793,
      "andaan": 1794,
      "Ġcomp": 1795,
      "Ġkn": 1796,
      "amant": 1797,
      "ĠPagk": 1798,
      "ĠSA": 1799,
      "Ġopis": 1800,
      "ĠFilipino": 1801,
      "ibo": 1802,
      "Ġpe": 1803,
      "ise": 1804,
      "ansang": 1805,
      "Ġnaming": 1806,
      "Ġdok": 1807,
      "ungo": 1808,
      "Ġatin": 1809,
      "ulungan": 1810,
      "ents": 1811,
      "Ġika": 1812,
      "Ġah": 1813,
      "ES": 1814,
      "count": 1815,
      "Ġpinakamahusay": 1816,
      "Ġmalaman": 1817,
      "Ġpagkakataon": 1818,
      "araw": 1819,
      "hanan": 1820,
      "ling": 1821,
      "ild": 1822,
      "Ġpersonal": 1823,
      "Ġnagbibigay": 1824,
      "Ġkatoto": 1825,
      "uya": 1826,
      "ao": 1827,
      "Ġmod": 1828,
      "oseso": 1829,
      "iar": 1830,
      "Ġpol": 1831,
      "Ġcar": 1832,
      "Ġu": 1833,
      "ĠKat": 1834,
      "ingnan": 1835,
      "panya": 1836,
      "Ġkapatid": 1837,
      "Ġ:": 1838,
      "Ġdep": 1839,
      "ions": 1840,
      "wal": 1841,
      "Ġpamahala": 1842,
      "Ġbitamina": 1843,
      "pa": 1844,
      "Ġsino": 1845,
      "Ġkaram": 1846,
      "Ġprot": 1847,
      "ush": 1848,
      "ekt": 1849,
      "agan": 1850,
      "Ġnina": 1851,
      "Ġnaga": 1852,
      "ekto": 1853,
      "alamat": 1854,
      "ated": 1855,
      "An": 1856,
      "Ito": 1857,
      "Ġmahal": 1858,
      "unti": 1859,
      "Ġid": 1860,
      "Ġsil": 1861,
      "ret": 1862,
      "Ġkapang": 1863,
      "Ġdr": 1864,
      "ww": 1865,
      "Ġhalaga": 1866,
      "IS": 1867,
      "Ġpagitan": 1868,
      "ckles": 1869,
      "site": 1870,
      "se": 1871,
      "Ġeks": 1872,
      "Ġstr": 1873,
      "ikang": 1874,
      "Ġkarapat": 1875,
      "ven": 1876,
      "Ġtuw": 1877,
      "Ġmagulang": 1878,
      "Ġrem": 1879,
      "Ġung": 1880,
      "?âĢĿ": 1881,
      "....": 1882,
      "de": 1883,
      "Ġmon": 1884,
      "ipe": 1885,
      "Ġdugo": 1886,
      "ukoy": 1887,
      "Ġday": 1888,
      "ayaan": 1889,
      "ĠMari": 1890,
      "alagay": 1891,
      "onom": 1892,
      "ĠNang": 1893,
      "lan": 1894,
      "ĠAb": 1895,
      "chool": 1896,
      "In": 1897,
      "Ġmadaling": 1898,
      "ations": 1899,
      "orn": 1900,
      "The": 1901,
      "Ġsurg": 1902,
      "Ġcr": 1903,
      "iardia": 1904,
      "Ng": 1905,
      "ĠIsang": 1906,
      "Ġgawain": 1907,
      "Ġpareh": 1908,
      "Ġfe": 1909,
      "Ġbumili": 1910,
      "get": 1911,
      "Ġcont": 1912,
      "igo": 1913,
      "Ġone": 1914,
      "ty": 1915,
      "Ġnangang": 1916,
      "AK": 1917,
      "upad": 1918,
      "Ġsumus": 1919,
      "Ġshe": 1920,
      "intay": 1921,
      "asal": 1922,
      "Ġtab": 1923,
      "anat": 1924,
      "ensya": 1925,
      "oll": 1926,
      "Ġlip": 1927,
      "aso": 1928,
      "Ġind": 1929,
      "isang": 1930,
      "Ġmawalan": 1931,
      "ĠSiya": 1932,
      "ern": 1933,
      "Ġpagtat": 1934,
      "apan": 1935,
      "Ġabout": 1936,
      "Ġ,": 1937,
      "zon": 1938,
      "Ġrito": 1939,
      "Ġsing": 1940,
      "Ġapp": 1941,
      "Ġpamb": 1942,
      "ĠHair": 1943,
      "Ġmangg": 1944,
      "Ġuna": 1945,
      "Ġlinggo": 1946,
      "ĠCo": 1947,
      "Ġlit": 1948,
      "OR": 1949,
      "inam": 1950,
      "olog": 1951,
      "Ġpakikipag": 1952,
      "akt": 1953,
      "Ġkaran": 1954,
      "EN": 1955,
      "Ġnakik": 1956,
      "ubong": 1957,
      "cl": 1958,
      "Ġpinap": 1959,
      "Ġlabas": 1960,
      "Ġmagh": 1961,
      "ĠIb": 1962,
      "AP": 1963,
      "Ġsobrang": 1964,
      "Ġbo": 1965,
      "Ġsanhi": 1966,
      "aralan": 1967,
      "uran": 1968,
      "Ġama": 1969,
      "Ġse": 1970,
      "Ġmalapit": 1971,
      "ibong": 1972,
      "ilos": 1973,
      "Ġulit": 1974,
      "yarihan": 1975,
      "Ġ/": 1976,
      "Ġ12": 1977,
      "ID": 1978,
      "Ġsapat": 1979,
      "Ġkulay": 1980,
      "ido": 1981,
      "Ġoper": 1982,
      "Ġsol": 1983,
      "Ġgaling": 1984,
      "Ġposible": 1985,
      "Ġfreckles": 1986,
      "Ġlove": 1987,
      "ru": 1988,
      "ĠJesus": 1989,
      "Ġlike": 1990,
      "ica": 1991,
      "Ġpangang": 1992,
      "Ġda": 1993,
      "Ġ#": 1994,
      "Ġmaganda": 1995,
      "Ġsist": 1996,
      "anib": 1997,
      "Ġpubl": 1998,
      "udi": 1999,
      "ĠMal": 2000,
      "anas": 2001,
      "Ġpaligid": 2002,
      "ings": 2003,
      "ibil": 2004,
      "ipas": 2005,
      "Ġjust": 2006,
      "net": 2007,
      "Ġmayroong": 2008,
      "**": 2009,
      "unas": 2010,
      "Ġminsan": 2011,
      "ĠAmer": 2012,
      "ner": 2013,
      "ĠAg": 2014,
      "Ġparehong": 2015,
      "der": 2016,
      "ther": 2017,
      "enter": 2018,
      "Ġsurgery": 2019,
      "Ġdagdagan": 2020,
      "ungsod": 2021,
      "Ġnyo": 2022,
      "iwa": 2023,
      "hong": 2024,
      "anta": 2025,
      "Ġmamam": 2026,
      "we": 2027,
      "ĠAd": 2028,
      "Ġthey": 2029,
      "tt": 2030,
      "Ġ18": 2031,
      "Ġkababa": 2032,
      "ĠCar": 2033,
      "Ġanong": 2034,
      "ĠPr": 2035,
      "reng": 2036,
      "Ġgob": 2037,
      "Ano": 2038,
      "kin": 2039,
      "Ġserbisyo": 2040,
      "AH": 2041,
      "Ġem": 2042,
      "arami": 2043,
      "Ġkailangang": 2044,
      "asyong": 2045,
      "risto": 2046,
      "Ġdumating": 2047,
      "ĠNew": 2048,
      "Ġnasabing": 2049,
      "pr": 2050,
      "Ġumano": 2051,
      "inom": 2052,
      "Ġsangk": 2053,
      "Ġnangyari": 2054,
      "ahal": 2055,
      "idente": 2056,
      "Ġtang": 2057,
      "Ġbay": 2058,
      "tibong": 2059,
      "Ġtel": 2060,
      "----": 2061,
      "ING": 2062,
      "Ġibig": 2063,
      "ade": 2064,
      "fter": 2065,
      "ocial": 2066,
      "Ġkatotohanan": 2067,
      "Ġding": 2068,
      "Ġfirst": 2069,
      "Ġbes": 2070,
      "Ġlub": 2071,
      "uch": 2072,
      "anggit": 2073,
      "Ġtayong": 2074,
      "ĠFr": 2075,
      "Ġsinasabi": 2076,
      "agat": 2077,
      "Ġmadalas": 2078,
      "eksyon": 2079,
      "aks": 2080,
      "elf": 2081,
      "untis": 2082,
      "ising": 2083,
      "Ġ|": 2084,
      "amat": 2085,
      "ilim": 2086,
      "ĠLe": 2087,
      "Ġwebsite": 2088,
      "oss": 2089,
      "Ġaccount": 2090,
      "Ġtapos": 2091,
      "ree": 2092,
      "Ġhalimbawa": 2093,
      "ĠEd": 2094,
      "dic": 2095,
      "ayunin": 2096,
      "Ġok": 2097,
      "Ġpamp": 2098,
      "ĠNap": 2099,
      "Ġkatulad": 2100,
      "unog": 2101,
      "ople": 2102,
      "Ġmawala": 2103,
      "Ġilan": 2104,
      "Ġbibig": 2105,
      "Ġnet": 2106,
      "iwalay": 2107,
      "anggol": 2108,
      "Ġ15": 2109,
      "ser": 2110,
      "araang": 2111,
      "udy": 2112,
      "agang": 2113,
      "Ġpamahalaan": 2114,
      "ĠEl": 2115,
      "unlad": 2116,
      "Ġpaggawa": 2117,
      "Ġsarap": 2118,
      "Ġhis": 2119,
      "Ġsagot": 2120,
      "Ġmaka": 2121,
      "ĠBr": 2122,
      "ĠPhilippines": 2123,
      "Ġtotoo": 2124,
      "ember": 2125,
      "yerno": 2126,
      "ĠMak": 2127,
      "Ġhang": 2128,
      "Ġnagsas": 2129,
      "Ġwr": 2130,
      "eck": 2131,
      "Ġreal": 2132,
      "ject": 2133,
      "ips": 2134,
      "Ġorgan": 2135,
      "eto": 2136,
      "Ġresulta": 2137,
      "Si": 2138,
      "Ġcas": 2139,
      "ĠGo": 2140,
      "ants": 2141,
      "Ġtiyan": 2142,
      "ĠUS": 2143,
      "ĠKanyang": 2144,
      "Ġ[": 2145,
      "Ġnad": 2146,
      "Ġhim": 2147,
      "12": 2148,
      "Ġpis": 2149,
      "ĠBag": 2150,
      "anal": 2151,
      "ider": 2152,
      "astos": 2153,
      "uns": 2154,
      "uka": 2155,
      "Ġgaano": 2156,
      "Ġhinah": 2157,
      "Ġkababaihan": 2158,
      "Ġrep": 2159,
      "Ġsite": 2160,
      "Ġpanl": 2161,
      "Ġpagbabago": 2162,
      "ater": 2163,
      "Ġspots": 2164,
      "Ġsusunod": 2165,
      "pirit": 2166,
      "Ġif": 2167,
      "abasa": 2168,
      "Ġgumagamit": 2169,
      "ĠKapag": 2170,
      "Ġayaw": 2171,
      "Ġpagkaka": 2172,
      "Ġtah": 2173,
      "erg": 2174,
      "Ġmuling": 2175,
      "Ġbik": 2176,
      "ugnayan": 2177,
      "edeng": 2178,
      "ahulugan": 2179,
      "Ġlok": 2180,
      "Ġnakikita": 2181,
      "Ġtumut": 2182,
      "stem": 2183,
      "ĠWala": 2184,
      "my": 2185,
      "Ġ...": 2186,
      "ĠInter": 2187,
      "usapan": 2188,
      "Ġhuling": 2189,
      "iwasan": 2190,
      "reen": 2191,
      "Ġsit": 2192,
      "Ġsik": 2193,
      "ĠMo": 2194,
      "uni": 2195,
      "Ġmedyo": 2196,
      "alakas": 2197,
      "ft": 2198,
      "Ġipinag": 2199,
      "Ġkont": 2200,
      "Ġmapup": 2201,
      "ingi": 2202,
      "iwas": 2203,
      "irl": 2204,
      "hat": 2205,
      "ikan": 2206,
      "Ġmagd": 2207,
      "Ġknow": 2208,
      "Ġbeses": 2209,
      "Ġimpl": 2210,
      "agot": 2211,
      "Ġitin": 2212,
      "Ġmabuti": 2213,
      "ayat": 2214,
      "Ġmaayos": 2215,
      "ĠMat": 2216,
      "puan": 2217,
      "inabi": 2218,
      "ubok": 2219,
      "ĠMaaari": 2220,
      "empre": 2221,
      "Ġtinatawag": 2222,
      "ðĿ": 2223,
      "usugan": 2224,
      "unting": 2225,
      "Ġbato": 2226,
      "ĠPres": 2227,
      "Ġnakaka": 2228,
      "Ġwho": 2229,
      "Ġitlog": 2230,
      "amin": 2231,
      "orta": 2232,
      "Ġkomp": 2233,
      "rat": 2234,
      "Ġsiguro": 2235,
      "arangay": 2236,
      "ola": 2237,
      "Ġwhat": 2238,
      "pas": 2239,
      "ikasyon": 2240,
      "Ġtaba": 2241,
      "arian": 2242,
      "artment": 2243,
      "Ġngayong": 2244,
      "Ġnew": 2245,
      "apa": 2246,
      "Ġek": 2247,
      "Ġkaraniwang": 2248,
      "pak": 2249,
      "Ġhel": 2250,
      "Ġmanl": 2251,
      "Ġlakas": 2252,
      "Ġmil": 2253,
      "irang": 2254,
      "Ġsimple": 2255,
      "api": 2256,
      "ady": 2257,
      "very": 2258,
      "Ġkaka": 2259,
      "ĠPa": 2260,
      "Ġmalaki": 2261,
      "Ġsapagkat": 2262,
      "ĠKap": 2263,
      "ict": 2264,
      "OS": 2265,
      "ton": 2266,
      "Ġpaglago": 2267,
      "uin": 2268,
      "ĠDep": 2269,
      "Ġkailan": 2270,
      "Ġnakas": 2271,
      "Ġtheir": 2272,
      "ĠDios": 2273,
      "Pero": 2274,
      "ĠPhilippine": 2275,
      "Ġtiyak": 2276,
      "bing": 2277,
      "ags": 2278,
      "Ġmahirap": 2279,
      "uhang": 2280,
      "Ġpamum": 2281,
      "unayan": 2282,
      "unong": 2283,
      "load": 2284,
      "Ġbil": 2285,
      "ĠCO": 2286,
      "ras": 2287,
      "ĠKahit": 2288,
      "Ġbreast": 2289,
      "yu": 2290,
      "alig": 2291,
      "Ġnagsis": 2292,
      "ĠManila": 2293,
      "ubo": 2294,
      "Ġpelikula": 2295,
      "ower": 2296,
      "Mas": 2297,
      "ahayag": 2298,
      "akbang": 2299,
      "ĠDr": 2300,
      "inabang": 2301,
      "ĠWalang": 2302,
      "uksa": 2303,
      "Ġ0": 2304,
      "Ġ30": 2305,
      "ket": 2306,
      "arm": 2307,
      "Ġmakikita": 2308,
      "ĠEx": 2309,
      "Ġkaranasan": 2310,
      "Ġmalakas": 2311,
      "Ġmagpap": 2312,
      "Ġmedia": 2313,
      "Ġmakipag": 2314,
      "eho": 2315,
      "bol": 2316,
      "ormal": 2317,
      "Ġkakay": 2318,
      "Ġint": 2319,
      "aut": 2320,
      "Ġtut": 2321,
      "igas": 2322,
      "Ġproseso": 2323,
      "ness": 2324,
      "!âĢĿ": 2325,
      "Ġany": 2326,
      "ĠSo": 2327,
      "ĠPin": 2328,
      "Ġpandurog": 2329,
      "taas": 2330,
      "Ġsabay": 2331,
      "alala": 2332,
      "Ġtawag": 2333,
      "Ġmasy": 2334,
      "aha": 2335,
      "ĠKas": 2336,
      "ication": 2337,
      "ition": 2338,
      "Ġhon": 2339,
      "Ġopisyal": 2340,
      "Ġkinakailangan": 2341,
      "esa": 2342,
      "uang": 2343,
      "Ã±": 2344,
      "ugon": 2345,
      "ataan": 2346,
      "unin": 2347,
      "ukl": 2348,
      "Ġuma": 2349,
      "Ġtit": 2350,
      "Ġtama": 2351,
      "ĠGr": 2352,
      "Ġlunas": 2353,
      "work": 2354,
      "Ġgu": 2355,
      "ely": 2356,
      "kas": 2357,
      "Ġpagbub": 2358,
      "Ġlalong": 2359,
      "Ġlayunin": 2360,
      "Ġpahayag": 2361,
      "ivers": 2362,
      "ukod": 2363,
      "ath": 2364,
      "kan": 2365,
      "Ġ&": 2366,
      "Ġtila": 2367,
      "Ġbec": 2368,
      "Ġhigh": 2369,
      "Ġsiy": 2370,
      "Ġgobyerno": 2371,
      "day": 2372,
      "Ġbur": 2373,
      "ese": 2374,
      "Ġmet": 2375,
      "Ġnakap": 2376,
      "astic": 2377,
      "Ġmagkak": 2378,
      "ency": 2379,
      "ets": 2380,
      "ĠNA": 2381,
      "orld": 2382,
      "Ġtamang": 2383,
      "ahagi": 2384,
      "vice": 2385,
      "ipili": 2386,
      "Ġoil": 2387,
      "tra": 2388,
      "ame": 2389,
      "isan": 2390,
      "pos": 2391,
      "oro": 2392,
      "Ġmakakuha": 2393,
      "Ġkapangyarihan": 2394,
      "ĠHal": 2395,
      "Ġpagka": 2396,
      "ning": 2397,
      "inar": 2398,
      "Ġnapap": 2399,
      "ause": 2400,
      "Ġpamamaraan": 2401,
      "Ġnagiging": 2402,
      "ys": 2403,
      "king": 2404,
      "iramdam": 2405,
      "Ġpagpapat": 2406,
      "ode": 2407,
      "Ġdiy": 2408,
      "igd": 2409,
      "Ġnakapag": 2410,
      "ihim": 2411,
      "ĠFor": 2412,
      "Ġkaramihan": 2413,
      "Ġkatut": 2414,
      "ĠPaano": 2415,
      "Ġsec": 2416,
      "arin": 2417,
      "Ġpuk": 2418,
      "yung": 2419,
      "lex": 2420,
      "Ġnagtat": 2421,
      "hone": 2422,
      "Ġpwede": 2423,
      "cr": 2424,
      "arto": 2425,
      "Ġgood": 2426,
      "aysayan": 2427,
      "ous": 2428,
      "//": 2429,
      "AB": 2430,
      "usa": 2431,
      "uyo": 2432,
      "Para": 2433,
      "Nak": 2434,
      "ody": 2435,
      "Ġapat": 2436,
      "away": 2437,
      "Ġhas": 2438,
      "Ġlikod": 2439,
      "ĠFac": 2440,
      "elo": 2441,
      "ĠYou": 2442,
      "ĠAm": 2443,
      "Ġmismo": 2444,
      "aramdaman": 2445,
      "Ġpananal": 2446,
      "Ġtuwing": 2447,
      "red": 2448,
      "uwang": 2449,
      "Ġdark": 2450,
      "Ġnatut": 2451,
      "ll": 2452,
      "Ġdun": 2453,
      "Ġlumabas": 2454,
      "Ġkomun": 2455,
      "ĠSup": 2456,
      "Ġdati": 2457,
      "Ġkumpanya": 2458,
      "Ġnegosyo": 2459,
      "ĠWe": 2460,
      "Ġsho": 2461,
      "Ġnai": 2462,
      "ute": 2463,
      "Ġpaghah": 2464,
      "ason": 2465,
      "Ġide": 2466,
      "Ġini": 2467,
      "ttp": 2468,
      "Ġpagtit": 2469,
      "Ġkilala": 2470,
      "Ġipag": 2471,
      "Ġlaki": 2472,
      "embre": 2473,
      "Ġmasas": 2474,
      "vern": 2475,
      "Ġhay": 2476,
      "imulan": 2477,
      "Ġnakal": 2478,
      "Ġmis": 2479,
      "ba": 2480,
      "ful": 2481,
      "Ġtablet": 2482,
      "Ġmagag": 2483,
      "Ġmus": 2484,
      "://": 2485,
      "ĠAko": 2486,
      "tima": 2487,
      "Ġsimula": 2488,
      "Ġtingin": 2489,
      "Ġbina": 2490,
      "Ġkons": 2491,
      "Ġdel": 2492,
      "email": 2493,
      "Ġtek": 2494,
      "11": 2495,
      "cos": 2496,
      "ier": 2497,
      "ph": 2498,
      "MA": 2499,
      "HH": 2500,
      "Ġthan": 2501,
      "amahal": 2502,
      "Ġprograma": 2503,
      "ebook": 2504,
      "ĠTV": 2505,
      "Ġkapit": 2506,
      "Ġdami": 2507,
      "ihang": 2508,
      "Ġmahalaga": 2509,
      "UL": 2510,
      "land": 2511,
      "ĠANG": 2512,
      "ound": 2513,
      "Ġpeople": 2514,
      "ĠAll": 2515,
      "Ġpagkakaroon": 2516,
      "by": 2517,
      "Ġsimb": 2518,
      "Ġpalag": 2519,
      "Ġdem": 2520,
      "inigay": 2521,
      "ley": 2522,
      "??": 2523,
      "Ġsumusunod": 2524,
      "vent": 2525,
      "Ġthem": 2526,
      "Ġreh": 2527,
      "undin": 2528,
      "itna": 2529,
      "Ġkatang": 2530,
      "Ġnakaraang": 2531,
      "Ġsl": 2532,
      "Ġlungsod": 2533,
      "irc": 2534,
      "Ġsasak": 2535,
      "Ġmatagal": 2536,
      "Ġsistema": 2537,
      "ihirap": 2538,
      "Ġmanggagawa": 2539,
      "Ġmapupuksa": 2540,
      "que": 2541,
      "Ġpuno": 2542,
      "Ġlist": 2543,
      "Ġpapel": 2544,
      "ĠBe": 2545,
      "igdig": 2546,
      "Ġund": 2547,
      "Ġniyo": 2548,
      "yembre": 2549,
      "pp": 2550,
      "ĠOr": 2551,
      "Ġsocial": 2552,
      "alian": 2553,
      "Ġgrupo": 2554,
      "tomas": 2555,
      "ĠDis": 2556,
      "ĠAy": 2557,
      "eryal": 2558,
      "embro": 2559,
      "Ġmatat": 2560,
      "Na": 2561,
      "Ġih": 2562,
      "isita": 2563,
      "quino": 2564,
      "Ġpulis": 2565,
      "Ġsalitang": 2566,
      "15": 2567,
      "Ġmg": 2568,
      "ubuo": 2569,
      "Ġantas": 2570,
      "way": 2571,
      "Ġschool": 2572,
      "ĠIsa": 2573,
      "ahi": 2574,
      "uhok": 2575,
      "Ġkumain": 2576,
      "Ġkalag": 2577,
      "enyo": 2578,
      "Kaya": 2579,
      "Ġdiet": 2580,
      "Dahil": 2581,
      "Ġts": 2582,
      "Ġkaniya": 2583,
      "ci": 2584,
      "ber": 2585,
      "uterte": 2586,
      "Ġkur": 2587,
      "Ġmai": 2588,
      "tain": 2589,
      "Ġrelasyon": 2590,
      "Ġmeron": 2591,
      "ĠBakit": 2592,
      "Ġmot": 2593,
      "Ġbinab": 2594,
      "limming": 2595,
      "ief": 2596,
      "uth": 2597,
      "Ġresp": 2598,
      "Ġmasaya": 2599,
      "ĠComm": 2600,
      "ited": 2601,
      "ugat": 2602,
      "olohiya": 2603,
      "Ġblog": 2604,
      "Ġdaan": 2605,
      "Ġganap": 2606,
      "Ġform": 2607,
      "ĠMe": 2608,
      "yat": 2609,
      "ĠCl": 2610,
      "ĠX": 2611,
      "ilo": 2612,
      "lor": 2613,
      "Ġnagkaroon": 2614,
      "Ġmamamayan": 2615,
      "amantala": 2616,
      "Ġdoktor": 2617,
      "Ġumaga": 2618,
      "Ġcons": 2619,
      "yente": 2620,
      "paman": 2621,
      "Ġsex": 2622,
      "Ġumi": 2623,
      "ĠNational": 2624,
      "Ġtagapag": 2625,
      "Ġmatatag": 2626,
      "Ġgayon": 2627,
      "ĠPas": 2628,
      "Ġpamamaga": 2629,
      "Ġgam": 2630,
      "inding": 2631,
      "Ġtrad": 2632,
      "Nang": 2633,
      "Ġnatural": 2634,
      "Ġover": 2635,
      "ipon": 2636,
      "Ġtaga": 2637,
      "Ġari": 2638,
      "Ġcasino": 2639,
      "ulin": 2640,
      "Ġother": 2641,
      "US": 2642,
      "Ġbet": 2643,
      "ipin": 2644,
      "mat": 2645,
      "za": 2646,
      "uyan": 2647,
      "nar": 2648,
      "mang": 2649,
      "Ġkasalukuyang": 2650,
      "ukas": 2651,
      "Ġmadagdagan": 2652,
      "friend": 2653,
      "Ġmakab": 2654,
      "Ġkapwa": 2655,
      "Ġpop": 2656,
      "rabaho": 2657,
      "Ġtiti": 2658,
      "ĠSin": 2659,
      "Ġph": 2660,
      "iksik": 2661,
      "Ġsw": 2662,
      "Ġpagdating": 2663,
      "ept": 2664,
      "ultura": 2665,
      "AD": 2666,
      "uturing": 2667,
      "Ġsystem": 2668,
      "ĠCon": 2669,
      "Ġpagg": 2670,
      "ĠSec": 2671,
      "ĠSp": 2672,
      "ayunpaman": 2673,
      "Ġhakbang": 2674,
      "ĠDuterte": 2675,
      "30": 2676,
      "Ġkalak": 2677,
      "ihintay": 2678,
      "ustong": 2679,
      "Ġcusto": 2680,
      "Ġkasalanan": 2681,
      "ĠPar": 2682,
      "loob": 2683,
      "Ġsinus": 2684,
      "iban": 2685,
      "ĠRom": 2686,
      "dor": 2687,
      "uwid": 2688,
      "Ġinaas": 2689,
      "Ġdamit": 2690,
      "ĠEst": 2691,
      "Isang": 2692,
      "Ġdet": 2693,
      "ĠPat": 2694,
      "Ġpumunta": 2695,
      "Ġnagkak": 2696,
      "Ġfriend": 2697,
      "amo": 2698,
      "ukat": 2699,
      "inistr": 2700,
      "Ġgumag": 2701,
      "iyembro": 2702,
      "itor": 2703,
      "anood": 2704,
      "inkles": 2705,
      "Ġhalip": 2706,
      "Ġlabi": 2707,
      "ĠPol": 2708,
      "iel": 2709,
      "Ġpakiramdam": 2710,
      "asawa": 2711,
      "asak": 2712,
      "ments": 2713,
      "intindi": 2714,
      "ail": 2715,
      "ipat": 2716,
      "ote": 2717,
      "Ġafter": 2718,
      "ono": 2719,
      "Ġwhen": 2720,
      "pital": 2721,
      "vin": 2722,
      "ahalaga": 2723,
      "Ġdon": 2724,
      "ĠSena": 2725,
      "Ġalso": 2726,
      "Ġmalawak": 2727,
      "ĠSam": 2728,
      "ator": 2729,
      "18": 2730,
      "Ġnow": 2731,
      "Ġpatak": 2732,
      "Ġcomm": 2733,
      "uck": 2734,
      "ection": 2735,
      "abuti": 2736,
      "yonal": 2737,
      "ĠReg": 2738,
      "izal": 2739,
      "lish": 2740,
      "Ġkalusugan": 2741,
      "bag": 2742,
      "ock": 2743,
      "Ġanim": 2744,
      "Ġpangangailangan": 2745,
      "Ġbiktima": 2746,
      "ĠTs": 2747,
      "Ġsintomas": 2748,
      "into": 2749,
      "agalog": 2750,
      "Ġlin": 2751,
      "ida": 2752,
      "Ġmanlalaro": 2753,
      "Ġcell": 2754,
      "stit": 2755,
      "akatulong": 2756,
      "mo": 2757,
      "Ġkabataan": 2758,
      "vest": 2759,
      "Ġkumuha": 2760,
      "ĠIp": 2761,
      "Ġadd": 2762,
      "ĠGiardia": 2763,
      "akbo": 2764,
      "ious": 2765,
      "Ġnaturang": 2766,
      "Ġproy": 2767,
      "Ġindustr": 2768,
      "ĠAquino": 2769,
      "Ġfl": 2770,
      "Ġfeel": 2771,
      "No": 2772,
      "Ġget": 2773,
      "ike": 2774,
      "Ġpumasok": 2775,
      "Ġthere": 2776,
      "Ġback": 2777,
      "ĠSer": 2778,
      "Ġmagbigay": 2779,
      "Paano": 2780,
      "iri": 2781,
      "ars": 2782,
      "Ġyears": 2783,
      "ny": 2784,
      "Ġisin": 2785,
      "ospital": 2786,
      "Ġcol": 2787,
      "Ġmiyembro": 2788,
      "alahat": 2789,
      "angat": 2790,
      "ador": 2791,
      "Ġhuli": 2792,
      "!!!": 2793,
      "Ġlar": 2794,
      "awi": 2795,
      "Ġplastic": 2796,
      "ĠAngel": 2797,
      "21": 2798,
      "entr": 2799,
      "Ġkabila": 2800,
      "unawaan": 2801,
      "rato": 2802,
      "Ġhug": 2803,
      "go": 2804,
      "ix": 2805,
      "eneral": 2806,
      "velop": 2807,
      "Ġtekn": 2808,
      "Ġsitw": 2809,
      "Ġbalita": 2810,
      "IC": 2811,
      "ĠDav": 2812,
      "Ġkayong": 2813,
      "Ġkump": 2814,
      "antay": 2815,
      "ukuha": 2816,
      "Ġemail": 2817,
      "Ġnalang": 2818,
      "âĢĿ.": 2819,
      "Ġ11": 2820,
      "istang": 2821,
      "Ġganito": 2822,
      "ilm": 2823,
      "Ġbaguhin": 2824,
      "tibo": 2825,
      "Ġmake": 2826,
      "ever": 2827,
      "Ġlipunan": 2828,
      "?\"": 2829,
      "kod": 2830,
      "abilang": 2831,
      "alataya": 2832,
      "itaas": 2833,
      "ondo": 2834,
      "iral": 2835,
      "Ġdina": 2836,
      "Ġlife": 2837,
      "uwal": 2838,
      "fer": 2839,
      "igpit": 2840,
      "Ġbigla": 2841,
      "Ġnakab": 2842,
      "Ġ13": 2843,
      "anggal": 2844,
      "50": 2845,
      "EL": 2846,
      "rop": 2847,
      "Ġwrinkles": 2848,
      "Ġibaba": 2849,
      "ikit": 2850,
      "anatili": 2851,
      "Ġtip": 2852,
      "ffect": 2853,
      "Ġnyang": 2854,
      "Ġhoney": 2855,
      "kop": 2856,
      "Ġimb": 2857,
      "imik": 2858,
      "ungkot": 2859,
      "uturo": 2860,
      "OL": 2861,
      "OT": 2862,
      "ones": 2863,
      "ates": 2864,
      "ayad": 2865,
      "Ġmasyadong": 2866,
      "utang": 2867,
      "Ġpagsis": 2868,
      "inaga": 2869,
      "aser": 2870,
      "ĠTo": 2871,
      "ebr": 2872,
      "Ġkarapatan": 2873,
      "irahan": 2874,
      "iyahan": 2875,
      "ĠMad": 2876,
      "Ġpanahong": 2877,
      "ĠQue": 2878,
      "agad": 2879,
      "Ġlokal": 2880,
      "igma": 2881,
      "Ġits": 2882,
      "Ġpuke": 2883,
      "Ġdalaga": 2884,
      "Ġkasaysayan": 2885,
      "akad": 2886,
      "ĠAlam": 2887,
      "ening": 2888,
      "piritu": 2889,
      "ikap": 2890,
      "ĠRo": 2891,
      "Ġkwento": 2892,
      "Ġneed": 2893,
      "earch": 2894,
      "Ġpagtaas": 2895,
      "Ġmom": 2896,
      "EC": 2897,
      "ahaha": 2898,
      "Ġgirl": 2899,
      "urt": 2900,
      "ĠBas": 2901,
      "Ġvery": 2902,
      "omet": 2903,
      "Ġ14": 2904,
      "Ġmalinaw": 2905,
      "Ġpartik": 2906,
      "ðŁ": 2907,
      "any": 2908,
      "Ġkaalaman": 2909,
      "emon": 2910,
      "uon": 2911,
      "Ġmatut": 2912,
      "ĠPagkatapos": 2913,
      "ters": 2914,
      "ward": 2915,
      "Ġfr": 2916,
      "14": 2917,
      "apal": 2918,
      "Ġmakuha": 2919,
      "Ġbint": 2920,
      "Ġtuloy": 2921,
      "lease": 2922,
      "enda": 2923,
      "Ġkatutubong": 2924,
      "utok": 2925,
      "usang": 2926,
      "ibl": 2927,
      "ĠAc": 2928,
      "ĠRep": 2929,
      "Ġass": 2930,
      "Ġbukas": 2931,
      "Ġslimming": 2932,
      "Ġkabu": 2933,
      "ED": 2934,
      "atid": 2935,
      "wit": 2936,
      "Ġsome": 2937,
      "tat": 2938,
      "Ġwag": 2939,
      "tot": 2940,
      "ukol": 2941,
      "ĠTag": 2942,
      "Ġhawak": 2943,
      "16": 2944,
      "ĠLum": 2945,
      "upa": 2946,
      "Ġsigur": 2947,
      "isk": 2948,
      "Ġginamit": 2949,
      "Ġhealth": 2950,
      "rim": 2951,
      "Ġinih": 2952,
      "Ġwant": 2953,
      "Ġob": 2954,
      "ĠOff": 2955,
      "ĠBar": 2956,
      "Ġdisk": 2957,
      "bong": 2958,
      "gaw": 2959,
      "esto": 2960,
      "Ġcard": 2961,
      "uss": 2962,
      "did": 2963,
      "ĠGusto": 2964,
      "ONG": 2965,
      "ingat": 2966,
      "Ġlimang": 2967,
      "oob": 2968,
      "ĠSal": 2969,
      "Ġ16": 2970,
      "Ġpagsubok": 2971,
      "AC": 2972,
      "Ġfam": 2973,
      "Ġsanggol": 2974,
      "rot": 2975,
      "iliit": 2976,
      "ope": 2977,
      "Ġmadali": 2978,
      "Ġkaw": 2979,
      "Ġhayop": 2980,
      "alapit": 2981,
      "Ġleg": 2982,
      "IG": 2983,
      "Ġkatangian": 2984,
      "VID": 2985,
      "kt": 2986,
      "ET": 2987,
      "Ġsayo": 2988,
      "Ġfung": 2989,
      "Ġdata": 2990,
      "ete": 2991,
      "Ġgalit": 2992,
      "Ġlaging": 2993,
      "gin": 2994,
      "13": 2995,
      "ior": 2996,
      "Ġset": 2997,
      "Ġsay": 2998,
      "Ġgl": 2999,
      "Ġkayang": 3000,
      "Ġdiyeta": 3001,
      "Ġnapag": 3002,
      "unga": 3003,
      "Ġnangyayari": 3004,
      "Ġsasakyan": 3005,
      "ough": 3006,
      "Ã³": 3007,
      "usog": 3008,
      "Ġbecause": 3009,
      "ouse": 3010,
      "Ġpagpapal": 3011,
      "Ġmagsas": 3012,
      "usiness": 3013,
      "BS": 3014,
      "Ġgitna": 3015,
      "Ġtest": 3016,
      "Ġtur": 3017,
      "Ġhapp": 3018,
      "ĠDepartment": 3019,
      "ilin": 3020,
      "Ġdri": 3021,
      "Ġproduc": 3022,
      "Ġminuto": 3023,
      "22": 3024,
      "Ġsery": 3025,
      "abayan": 3026,
      "Ġact": 3027,
      "igaw": 3028,
      "Ġsm": 3029,
      "abihin": 3030,
      "orp": 3031,
      "Ġgro": 3032,
      "utas": 3033,
      "ubuhay": 3034,
      "hal": 3035,
      "Ġisyu": 3036,
      "Ġbumaba": 3037,
      "Ġinteres": 3038,
      "orte": 3039,
      "pany": 3040,
      "acy": 3041,
      "vers": 3042,
      "Ġmagkano": 3043,
      "amatay": 3044,
      "Ġlast": 3045,
      "anaw": 3046,
      "akain": 3047,
      "Ġsaka": 3048,
      "ĠOn": 3049,
      "gen": 3050,
      "ahay": 3051,
      "Ġlagi": 3052,
      "cial": 3053,
      "top": 3054,
      "oso": 3055,
      "ĠRes": 3056,
      "ĠâĢ¦": 3057,
      "Ġend": 3058,
      "Ġexp": 3059,
      "Ġbest": 3060,
      "Ġbumalik": 3061,
      "rael": 3062,
      "Ġhow": 3063,
      "Ġlabis": 3064,
      "Ġpartikular": 3065,
      "Ġpup": 3066,
      "aloob": 3067,
      "Ġsir": 3068,
      "ĠLo": 3069,
      "akay": 3070,
      "Ġplano": 3071,
      "Ġright": 3072,
      "Ġtanggap": 3073,
      "atagal": 3074,
      "AW": 3075,
      "UR": 3076,
      "Ġmait": 3077,
      "Ġmaik": 3078,
      "imulang": 3079,
      "Ġartik": 3080,
      "Ġthen": 3081,
      "Ġ100": 3082,
      "ecial": 3083,
      "ĠUnivers": 3084,
      "Ġsitwasyon": 3085,
      "Ġganun": 3086,
      "amay": 3087,
      "Ġterm": 3088,
      "ampok": 3089,
      "Ġitaas": 3090,
      "vernment": 3091,
      "Ġbatayan": 3092,
      "Ġhari": 3093,
      "ministr": 3094,
      "Ġ$": 3095,
      "osis": 3096,
      "ĠLa": 3097,
      "ĠPangulong": 3098,
      "sw": 3099,
      "Ġig": 3100,
      "Ġpet": 3101,
      "Ġgulang": 3102,
      "ĠRob": 3103,
      "ĠSub": 3104,
      "Ġbatay": 3105,
      "Ġpinat": 3106,
      "arte": 3107,
      "ves": 3108,
      "vis": 3109,
      "UN": 3110,
      "Ġpagkab": 3111,
      "Ġrecipe": 3112,
      "Ġibinigay": 3113,
      "nam": 3114,
      "ĠBl": 3115,
      "Ġkahulugan": 3116,
      "Ġtreat": 3117,
      "Ġbasta": 3118,
      "Ġpagsusuri": 3119,
      "elle": 3120,
      "Ġlibreng": 3121,
      "national": 3122,
      "ze": 3123,
      "Ġwikang": 3124,
      "ading": 3125,
      "Ġibabaw": 3126,
      "Ġgustong": 3127,
      "Ġdad": 3128,
      "Ġgano": 3129,
      "Ġketo": 3130,
      "ĠHuwag": 3131,
      "Ġtinut": 3132,
      "ti": 3133,
      "ĠIng": 3134,
      "ĠLu": 3135,
      "hel": 3136,
      "isasyon": 3137,
      "agdagang": 3138,
      "ownload": 3139,
      "ibilidad": 3140,
      "ikot": 3141,
      "ĠAT": 3142,
      "arito": 3143,
      "Ġkuwento": 3144,
      "Ġseg": 3145,
      "ices": 3146,
      "ĠEng": 3147,
      "Ġmaliliit": 3148,
      "ĠJohn": 3149,
      "Ġsis": 3150,
      "aaaa": 3151,
      "Ġmateryal": 3152,
      "ĠIsrael": 3153,
      "anya": 3154,
      "iting": 3155,
      "ilid": 3156,
      "hoto": 3157,
      "Ġsubalit": 3158,
      "illa": 3159,
      "aharap": 3160,
      "ÃŃ": 3161,
      "alaan": 3162,
      "Ġcustomer": 3163,
      "Ġmilit": 3164,
      "It": 3165,
      "Ġcoun": 3166,
      "nila": 3167,
      "mga": 3168,
      "ĠBul": 3169,
      "GA": 3170,
      "bayan": 3171,
      "ahalagang": 3172,
      "oko": 3173,
      "Ġpangyayari": 3174,
      "ĠRizal": 3175,
      "Ġbiglang": 3176,
      "Ġlaman": 3177,
      "ram": 3178,
      "Ġbiy": 3179,
      "ĠIk": 3180,
      "ĠPinoy": 3181,
      "atch": 3182,
      "ayin": 3183,
      "akl": 3184,
      "âĢĵ": 3185,
      "ĠBuhok": 3186,
      "Ġsaid": 3187,
      "ĠEm": 3188,
      "Ġ24": 3189,
      "Ġplay": 3190,
      "Ġnararamdaman": 3191,
      "Ġgumagawa": 3192,
      "Ġtumat": 3193,
      "atig": 3194,
      "Ġmasama": 3195,
      "Ġpalak": 3196,
      "ĠPresident": 3197,
      "Ġmens": 3198,
      "ental": 3199,
      "ĠTagalog": 3200,
      "mag": 3201,
      "mpalataya": 3202,
      "agumpay": 3203,
      "Ġpaaralan": 3204,
      "Ġpagbibigay": 3205,
      "Ġmahalagang": 3206,
      "Ġhand": 3207,
      "Ġla": 3208,
      "Ġkalagayan": 3209,
      "ĠDapat": 3210,
      "Ġestudy": 3211,
      "ĠCOVID": 3212,
      "Ġtakot": 3213,
      "ĠBen": 3214,
      "Ġmaip": 3215,
      "Ġtar": 3216,
      "Ġdila": 3217,
      "Ġhere": 3218,
      "Ġcare": 3219,
      "Ġthink": 3220,
      "ensiya": 3221,
      "ĠEr": 3222,
      "Ġland": 3223,
      "orts": 3224,
      "si": 3225,
      "ank": 3226,
      "ĠTa": 3227,
      "asang": 3228,
      "oth": 3229,
      "ĠSy": 3230,
      "ample": 3231,
      "ĠRos": 3232,
      "Ġ17": 3233,
      "IR": 3234,
      "ved": 3235,
      "ĠSabi": 3236,
      "Ġuod": 3237,
      "Ġhina": 3238,
      "ĠRam": 3239,
      "Ġlook": 3240,
      "Ġtanging": 3241,
      "ĠGod": 3242,
      "17": 3243,
      "Ġbro": 3244,
      "atin": 3245,
      "unto": 3246,
      "Ġcirc": 3247,
      "ĠPart": 3248,
      "akailan": 3249,
      "Ġevery": 3250,
      "uel": 3251,
      "ilyo": 3252,
      "Ġcal": 3253,
      "Ġbus": 3254,
      "Ġkontr": 3255,
      "Ġpinal": 3256,
      "amitan": 3257,
      "ures": 3258,
      "Ġanyo": 3259,
      "Ġul": 3260,
      "ission": 3261,
      "Ġet": 3262,
      "icone": 3263,
      "Ġtw": 3264,
      "Ġhelp": 3265,
      "____": 3266,
      "utol": 3267,
      ".,": 3268,
      "sk": 3269,
      "ĠAyon": 3270,
      "Ġkond": 3271,
      "iver": 3272,
      "erc": 3273,
      "Ġgastos": 3274,
      "Ġhost": 3275,
      "Ġbigyan": 3276,
      "insala": 3277,
      "intindihan": 3278,
      "Ġpaglil": 3279,
      "ĠNgayon": 3280,
      "Ġsah": 3281,
      "Ġmanag": 3282,
      "Ġpay": 3283,
      "Ġkinal": 3284,
      "con": 3285,
      "ĠDon": 3286,
      "Ġlangit": 3287,
      "Ġrebol": 3288,
      "Ka": 3289,
      "lit": 3290,
      "igyan": 3291,
      "Ġwo": 3292,
      "ative": 3293,
      "Ġproyekto": 3294,
      "Ġnau": 3295,
      "alayan": 3296,
      "irapan": 3297,
      "alawigan": 3298,
      "Ġiyan": 3299,
      "ĠOF": 3300,
      "Ġhalaman": 3301,
      "Ġlitrato": 3302,
      "Ġhad": 3303,
      "Ġpwedeng": 3304,
      "Ġnagawa": 3305,
      "enn": 3306,
      "Ġwhich": 3307,
      "nag": 3308,
      "Ġklase": 3309,
      "ĠGu": 3310,
      "Ġnangangahulugan": 3311,
      "Ġkuya": 3312,
      "ĠBibl": 3313,
      "Ġbabaeng": 3314,
      "ale": 3315,
      "alawa": 3316,
      "ener": 3317,
      "ĠMab": 3318,
      "ids": 3319,
      "Ġibin": 3320,
      "isyong": 3321,
      "Ġway": 3322,
      "ĠBilang": 3323,
      "Ġonly": 3324,
      "ismong": 3325,
      "atayan": 3326,
      "Ġkinab": 3327,
      "Ġsangkap": 3328,
      "ĠâĢĶ": 3329,
      "Ġsikat": 3330,
      "ĠFacebook": 3331,
      "ja": 3332,
      "Ġtagal": 3333,
      "Ġnetwork": 3334,
      "ora": 3335,
      "ĠMang": 3336,
      "Ġboy": 3337,
      "fore": 3338,
      "Ġmed": 3339,
      "Ġpigmentation": 3340,
      "ories": 3341,
      "nas": 3342,
      "rec": 3343,
      "Ġmovie": 3344,
      "ving": 3345,
      "als": 3346,
      "ukha": 3347,
      "ĠLib": 3348,
      "ĠDan": 3349,
      "ĠUpang": 3350,
      "UM": 3351,
      "hen": 3352,
      "Ġkaragdagang": 3353,
      "iguro": 3354,
      "Ġtahanan": 3355,
      "Ġblo": 3356,
      "isit": 3357,
      "asya": 3358,
      "Ġlalak": 3359,
      "ekta": 3360,
      "fa": 3361,
      "Ġprof": 3362,
      "!\"": 3363,
      "ukasyon": 3364,
      "Ġappl": 3365,
      "ĠTum": 3366,
      "Ġmukhang": 3367,
      "ipilian": 3368,
      "ather": 3369,
      "asalamat": 3370,
      "ulasyon": 3371,
      "ilipinas": 3372,
      "inasyon": 3373,
      "Ngunit": 3374,
      "aksyon": 3375,
      "TO": 3376,
      "ĠAk": 3377,
      "ĠÂ": 3378,
      "Ġdagdag": 3379,
      "Ġkaloob": 3380,
      "Ġmababa": 3381,
      "ĠMarcos": 3382,
      "nang": 3383,
      "Ġsamp": 3384,
      "Ġbel": 3385,
      "Ġbalik": 3386,
      "agong": 3387,
      "Ġ25": 3388,
      "ĠWill": 3389,
      "Ġpangkalahat": 3390,
      "Ġchar": 3391,
      "Ġsul": 3392,
      "pesyal": 3393,
      "Ġestado": 3394,
      "ange": 3395,
      "dang": 3396,
      "ader": 3397,
      "ĠMart": 3398,
      "Ġsimpleng": 3399,
      "Ġrespons": 3400,
      "ĠSe": 3401,
      "eep": 3402,
      "Ġpropes": 3403,
      "Ġmahabang": 3404,
      "ĠMaria": 3405,
      "Ġtotoong": 3406,
      "Ġben": 3407,
      "Ġguro": 3408,
      "Ġpangarap": 3409,
      "Ø§": 3410,
      "ium": 3411,
      "Ġnangangailangan": 3412,
      "orya": 3413,
      "hindi": 3414,
      "ĠCol": 3415,
      "Ġisda": 3416,
      "ĠInd": 3417,
      "Ġlimit": 3418,
      "Maa": 3419,
      "Kapag": 3420,
      "Ġtagumpay": 3421,
      "ats": 3422,
      "unc": 3423,
      "Ġdaliri": 3424,
      "ĠJan": 3425,
      "ull": 3426,
      "BN": 3427,
      "Ġmonth": 3428,
      "IP": 3429,
      "Ġsyang": 3430,
      "Ġnawala": 3431,
      "Ġwould": 3432,
      "akot": 3433,
      "Ġep": 3434,
      "achine": 3435,
      "Ġhits": 3436,
      "Ġmagka": 3437,
      "Ġmaiwasan": 3438,
      "Ġmapang": 3439,
      "aging": 3440,
      "patuloy": 3441,
      "aryo": 3442,
      "ĠPan": 3443,
      "ĠAlex": 3444,
      "ĠPl": 3445,
      "Ġbir": 3446,
      "ĠJuan": 3447,
      "ollow": 3448,
      "Ġmahigit": 3449,
      "Ġnapaka": 3450,
      "ibay": 3451,
      "ĠHabang": 3452,
      "Ġate": 3453,
      "ĠNoong": 3454,
      "Ġusap": 3455,
      "aas": 3456,
      "Ġpansin": 3457,
      "ĠKal": 3458,
      "hhh": 3459,
      "Ġfree": 3460,
      "ĠMula": 3461,
      "Ġaktib": 3462,
      "istro": 3463,
      "ually": 3464,
      "Ġtap": 3465,
      "Ġtem": 3466,
      "Ġimport": 3467,
      "erek": 3468,
      "Ġdek": 3469,
      "Ġpinags": 3470,
      "abagong": 3471,
      "Ġkama": 3472,
      "Ġitinat": 3473,
      "try": 3474,
      "Ġpagmamahal": 3475,
      "Ġprogram": 3476,
      "ĠQuezon": 3477,
      "Ġexper": 3478,
      "II": 3479,
      "amot": 3480,
      "ĠSum": 3481,
      "Noong": 3482,
      ":\"": 3483,
      "DI": 3484,
      "Ġtingnan": 3485,
      "âĢ¦.": 3486,
      "ĠJul": 3487,
      "Ġz": 3488,
      "ipis": 3489,
      "entong": 3490,
      "Ġmapap": 3491,
      "Ġkasalukuyan": 3492,
      "Ġplan": 3493,
      "ology": 3494,
      "ĠSant": 3495,
      "natili": 3496,
      "gy": 3497,
      "ca": 3498,
      "Ġdarating": 3499,
      "Pagk": 3500,
      "ahok": 3501,
      "Ġumalis": 3502,
      "ĠJose": 3503,
      "Ġaklat": 3504,
      "baguhin": 3505,
      "ĠMaraming": 3506,
      "awas": 3507,
      "Ġmagm": 3508,
      "Ġlalaking": 3509,
      "aliwanag": 3510,
      "Ġgatas": 3511,
      "Ġnamatay": 3512,
      "Ġlubos": 3513,
      "Ġprob": 3514,
      "car": 3515,
      "pro": 3516,
      "TI": 3517,
      "Ġsuporta": 3518,
      "Ġdak": 3519,
      "ĠMah": 3520,
      "ende": 3521,
      "esis": 3522,
      "Ġrek": 3523,
      "Ġkasing": 3524,
      "isipan": 3525,
      "Ġkakayahan": 3526,
      "alarawan": 3527,
      "Ġmainit": 3528,
      "yr": 3529,
      "Ġhard": 3530,
      "ĠSar": 3531,
      "Ġcall": 3532,
      "aalok": 3533,
      "Ġtam": 3534,
      "Ġfood": 3535,
      "Ġkalidad": 3536,
      "ĠMayor": 3537,
      "Ġpagsasanay": 3538,
      "Ġkanina": 3539,
      "ugto": 3540,
      "dir": 3541,
      "ize": 3542,
      "ĠKom": 3543,
      "ives": 3544,
      "dr": 3545,
      "wn": 3546,
      "Ġnakakat": 3547,
      "hehe": 3548,
      "Ġhitsura": 3549,
      "joy": 3550,
      "aliit": 3551,
      "tions": 3552,
      "ĠÐ": 3553,
      "ugali": 3554,
      "Ġbinata": 3555,
      "Isa": 3556,
      "orth": 3557,
      "ĠBo": 3558,
      "ĠNiya": 3559,
      "umento": 3560,
      "Ġbarangay": 3561,
      "Ġinit": 3562,
      "Ġestudyante": 3563,
      "ĠTe": 3564,
      "\".": 3565,
      "Bakit": 3566,
      "akda": 3567,
      "apasok": 3568,
      "ĠDoc": 3569,
      "Ġekonom": 3570,
      "Ġulat": 3571,
      "Ġmakik": 3572,
      "ĠHealth": 3573,
      "Ġnormal": 3574,
      "Ġhirap": 3575,
      "Ġtula": 3576,
      "Ġmass": 3577,
      "Ġold": 3578,
      "yn": 3579,
      "Ġnagsimula": 3580,
      "ĠChrist": 3581,
      "23": 3582,
      "Ġhil": 3583,
      "alagahan": 3584,
      "Ġoperasyon": 3585,
      "Ġdec": 3586,
      "ĠParang": 3587,
      "uda": 3588,
      "Ġimplants": 3589,
      "ied": 3590,
      "Ġtungk": 3591,
      "ĠCream": 3592,
      "Ġgumamit": 3593,
      "aalala": 3594,
      "Ġunti": 3595,
      "aking": 3596,
      "ĠKailangan": 3597,
      "ĠJos": 3598,
      "abol": 3599,
      "Ġpananaw": 3600,
      "itaw": 3601,
      "Ġpanganib": 3602,
      "alakad": 3603,
      "Sinabi": 3604,
      "Ġlive": 3605,
      "olk": 3606,
      "Ġroom": 3607,
      "How": 3608,
      "ense": 3609,
      "nais": 3610,
      "ĠAma": 3611,
      "abago": 3612,
      "igtasan": 3613,
      "Ġinf": 3614,
      "Ġnagpapat": 3615,
      "Ġ199": 3616,
      "ific": 3617,
      "nel": 3618,
      "umber": 3619,
      "Ġpabor": 3620,
      "Ch": 3621,
      "Ġsalamat": 3622,
      "Ġsuspek": 3623,
      "Ġsulat": 3624,
      "Ġhy": 3625,
      "ĠQu": 3626,
      "Ġbeen": 3627,
      "Ġemp": 3628,
      "Ġbalak": 3629,
      "ĠKar": 3630,
      "Ġmababang": 3631,
      "cle": 3632,
      "Ġmapagk": 3633,
      "ini": 3634,
      "Ġnilalaman": 3635,
      "aming": 3636,
      "Ġcap": 3637,
      "Ġclass": 3638,
      "iwatig": 3639,
      "Ġpinang": 3640,
      "ware": 3641,
      "retary": 3642,
      "ubos": 3643,
      "ersisyo": 3644,
      "Ġreally": 3645,
      "ustuhan": 3646,
      "iza": 3647,
      "Ġbaby": 3648,
      "\":\"": 3649,
      "Ġhangga": 3650,
      "ules": 3651,
      "Ġlong": 3652,
      "dibid": 3653,
      "ĠMaynila": 3654,
      "Ġsur": 3655,
      "ias": 3656,
      "Ġdom": 3657,
      "Ġnabanggit": 3658,
      "Ġkagamitan": 3659,
      "une": 3660,
      "ĠDay": 3661,
      "ubukan": 3662,
      "oci": 3663,
      "ĠChina": 3664,
      "Ġdetal": 3665,
      "Ġlet": 3666,
      "Ġmais": 3667,
      "Ġregular": 3668,
      "awasan": 3669,
      "Ġeng": 3670,
      "son": 3671,
      "Ġagain": 3672,
      "anao": 3673,
      "date": 3674,
      "Ġeven": 3675,
      "Ġteam": 3676,
      "Ġdagat": 3677,
      "Ġshould": 3678,
      "Ġent": 3679,
      "ubad": 3680,
      "aligiran": 3681,
      "Ġmust": 3682,
      "Ġmaaring": 3683,
      "unity": 3684,
      "gg": 3685,
      "Ġexc": 3686,
      "Ġbansang": 3687,
      "Ġligtas": 3688,
      "Ġpagpipilian": 3689,
      "Ġposit": 3690,
      "igilan": 3691,
      "anteng": 3692,
      "hih": 3693,
      "onood": 3694,
      "Ġmalamang": 3695,
      "Ġconc": 3696,
      "org": 3697,
      "Ġmabuting": 3698,
      "Ġsumunod": 3699,
      "orry": 3700,
      "umin": 3701,
      "Wala": 3702,
      "ĠGayunpaman": 3703,
      "duc": 3704,
      "Ġmatinding": 3705,
      "Ġnaa": 3706,
      "Ġ50": 3707,
      "angan": 3708,
      "Ġmensahe": 3709,
      "Ġeffect": 3710,
      "Ġnand": 3711,
      "ban": 3712,
      "amali": 3713,
      "bit": 3714,
      "rap": 3715,
      "Ġhot": 3716,
      "Ġrelih": 3717,
      "Ġpunt": 3718,
      "Ġindibid": 3719,
      "ĠLahat": 3720,
      "Ġmalalaking": 3721,
      "Ġpulit": 3722,
      "Ġmagkakaroon": 3723,
      "ÙĦ": 3724,
      "Ġpot": 3725,
      "abalik": 3726,
      "Ġkaugnay": 3727,
      "ploy": 3728,
      "Ġkole": 3729,
      "irt": 3730,
      "Ġlistahan": 3731,
      "iro": 3732,
      "Ġpondo": 3733,
      "aranas": 3734,
      "reg": 3735,
      "Ġmalalim": 3736,
      "Ġbags": 3737,
      "ĠMus": 3738,
      "biz": 3739,
      "ibers": 3740,
      "Ġwere": 3741,
      "akap": 3742,
      "daan": 3743,
      "Ġpint": 3744,
      "awad": 3745,
      "Ġpong": 3746,
      "Ġdry": 3747,
      "ĠIm": 3748,
      "ces": 3749,
      "Ġpinas": 3750,
      "alakbay": 3751,
      "Ġsuper": 3752,
      "Ġpubliko": 3753,
      "kit": 3754,
      "arant": 3755,
      "âĢ¢": 3756,
      "Ġnakuha": 3757,
      "ift": 3758,
      "Ġkomunidad": 3759,
      "Ġgay": 3760,
      "Ġnanay": 3761,
      "ole": 3762,
      "ĠBut": 3763,
      "tok": 3764,
      "Ġipina": 3765,
      "ortahan": 3766,
      "Ġunder": 3767,
      "24": 3768,
      "ĠABS": 3769,
      "ĠKrist": 3770,
      "emang": 3771,
      "Ġpinan": 3772,
      "ĠIN": 3773,
      "www": 3774,
      "gad": 3775,
      "agsak": 3776,
      "Ġmagagamit": 3777,
      "ĠAss": 3778,
      "Ġnagbigay": 3779,
      "Ġmen": 3780,
      "Ġfamily": 3781,
      "Ġkultura": 3782,
      "rek": 3783,
      "Ġamo": 3784,
      "jo": 3785,
      "emento": 3786,
      "Ip": 3787,
      "ĠMayroon": 3788,
      "IK": 3789,
      "ution": 3790,
      "ron": 3791,
      "Ġhanda": 3792,
      "Ġsel": 3793,
      "Ġsolusyon": 3794,
      "Ġhanay": 3795,
      "Ġespesyal": 3796,
      "li": 3797,
      "ways": 3798,
      "atlong": 3799,
      "inggil": 3800,
      "ĠHalimbawa": 3801,
      "Ġhuk": 3802,
      "Ġya": 3803,
      "Ġanti": 3804,
      "anggi": 3805,
      "Ġnaniniwala": 3806,
      "Ġsuot": 3807,
      "--------": 3808,
      "urr": 3809,
      "istis": 3810,
      "ience": 3811,
      "NP": 3812,
      "nd": 3813,
      "echn": 3814,
      "Ġkamatayan": 3815,
      "ule": 3816,
      "Ġforum": 3817,
      "ffer": 3818,
      "ger": 3819,
      "Ġsure": 3820,
      "Ġbusiness": 3821,
      "Ġipinap": 3822,
      ".[": 3823,
      "Ġmangyari": 3824,
      "other": 3825,
      "ots": 3826,
      "ird": 3827,
      "ude": 3828,
      "ĠNews": 3829,
      "name": 3830,
      "anayan": 3831,
      "ĠEuro": 3832,
      "Ġmanok": 3833,
      "Ġutak": 3834,
      "Ġtim": 3835,
      "Ġpus": 3836,
      "inst": 3837,
      "ipp": 3838,
      "trabaho": 3839,
      "ebenta": 3840,
      "Ġitim": 3841,
      "Ġkaligtasan": 3842,
      "Ġmatatagpuan": 3843,
      "Walang": 3844,
      "amas": 3845,
      "ĠPAG": 3846,
      "ĠSol": 3847,
      "ilipat": 3848,
      "Ġgilid": 3849,
      "ren": 3850,
      "ados": 3851,
      "ico": 3852,
      "Ġindustriya": 3853,
      "ĠGMA": 3854,
      "ĠThis": 3855,
      "Ġpalakihin": 3856,
      "Ġoffic": 3857,
      "Ġlalake": 3858,
      "cal": 3859,
      "ĠKore": 3860,
      "ship": 3861,
      "aganap": 3862,
      "igur": 3863,
      "Ġukol": 3864,
      "Ġdesisyon": 3865,
      "weet": 3866,
      "Ġbody": 3867,
      "vid": 3868,
      "Ġkawalan": 3869,
      "uluhan": 3870,
      "ĠCristo": 3871,
      "Ġorder": 3872,
      "Ġteknolohiya": 3873,
      "Ġdamdam": 3874,
      "amba": 3875,
      "Ġhinih": 3876,
      "ĠUniversity": 3877,
      "Ġmuch": 3878,
      "ĠMGA": 3879,
      "Ġnakah": 3880,
      "Ġnum": 3881,
      "Ġpress": 3882,
      "Ġbinig": 3883,
      "ĠPet": 3884,
      "ĠMet": 3885,
      "amdaman": 3886,
      "ulug": 3887,
      "ĠMy": 3888,
      "Th": 3889,
      "Ġdulo": 3890,
      "uksan": 3891,
      "vert": 3892,
      "Ġsumas": 3893,
      "Ġdat": 3894,
      "utom": 3895,
      "Ġpolit": 3896,
      "Ġkalam": 3897,
      "Ġsakin": 3898,
      "Ġnews": 3899,
      "Ġbook": 3900,
      "Ġnun": 3901,
      "abe": 3902,
      "ĠUm": 3903,
      "Ġmilitar": 3904,
      "kal": 3905,
      "ican": 3906,
      "CBN": 3907,
      "val": 3908,
      "Ġmob": 3909,
      "Ġakala": 3910,
      "ĠGum": 3911,
      "ĠRa": 3912,
      "Ġindibidwal": 3913,
      "Ġsang": 3914,
      "Ġhanap": 3915,
      "Ġsimbahan": 3916,
      "Ġstory": 3917,
      "Ġput": 3918,
      "Ġpek": 3919,
      "ords": 3920,
      "Ġremedyo": 3921,
      "Nap": 3922,
      "Ġhttp": 3923,
      "Ġhangin": 3924,
      "Ġpagbubuntis": 3925,
      "fe": 3926,
      "tle": 3927,
      "ony": 3928,
      "ĠBit": 3929,
      "Ġkaagad": 3930,
      "Ġpamil": 3931,
      "Ġani": 3932,
      "ingan": 3933,
      "urs": 3934,
      "IM": 3935,
      "met": 3936,
      "ĠVal": 3937,
      "lamo": 3938,
      "Ġter": 3939,
      "Ġnob": 3940,
      "Ġpananaliksik": 3941,
      "Ġsk": 3942,
      "formation": 3943,
      "velopment": 3944,
      "RO": 3945,
      "isi": 3946,
      "Ġiss": 3947,
      "Ġcomputer": 3948,
      "ĠIna": 3949,
      "here": 3950,
      "ĠEspiritu": 3951,
      "Ġbenep": 3952,
      "Ġtop": 3953,
      "Ġtauhan": 3954,
      "Ġtreatment": 3955,
      "ãģ": 3956,
      "Ġposisyon": 3957,
      "auty": 3958,
      "Ġkondisyon": 3959,
      "idos": 3960,
      "ahati": 3961,
      "ĠMaaaring": 3962,
      "ĠIngles": 3963,
      "cer": 3964,
      "ham": 3965,
      "ĠIS": 3966,
      "Ġniy": 3967,
      "igla": 3968,
      "25": 3969,
      "Ġbase": 3970,
      "ĠMarami": 3971,
      "Ġrate": 3972,
      "Ġpaghahanda": 3973,
      "Ġnut": 3974,
      "Ġpagpaputi": 3975,
      "law": 3976,
      "Ġadministr": 3977,
      "ontrol": 3978,
      "Ġpagtitistis": 3979,
      "Ġbukod": 3980,
      "Ġsandali": 3981,
      "Ġpambansang": 3982,
      "wan": 3983,
      "atura": 3984,
      "Ġwell": 3985,
      "Ġmasamang": 3986,
      "undan": 3987,
      "dical": 3988,
      "Ġlalawigan": 3989,
      "Ġkwarto": 3990,
      "Ġideya": 3991,
      "Samantala": 3992,
      "uong": 3993,
      "Ġx": 3994,
      "Ġplat": 3995,
      "peto": 3996,
      "Ġsukat": 3997,
      "ging": 3998,
      "ames": 3999,
      "ĠKab": 4000,
      "Ġrad": 4001,
      "Ġstart": 4002,
      "Ġsilicone": 4003,
      "aktan": 4004,
      "bon": 4005,
      "Ġyata": 4006,
      "oral": 4007,
      "mon": 4008,
      "Ġing": 4009,
      "Ġsee": 4010,
      "iew": 4011,
      "Ġpatungo": 4012,
      "RE": 4013,
      "ayap": 4014,
      "Ako": 4015,
      "fr": 4016,
      "untunin": 4017,
      "Ġgawing": 4018,
      "Ġmakatulong": 4019,
      "Ġalin": 4020,
      "Ġnarinig": 4021,
      "IA": 4022,
      "amig": 4023,
      "apo": 4024,
      "tress": 4025,
      "Ġscreen": 4026,
      "play": 4027,
      "Ġtind": 4028,
      "Ġpangung": 4029,
      "Ġstill": 4030,
      "Ġpublic": 4031,
      "Ġkapaligiran": 4032,
      "Ġinternet": 4033,
      "ĠAct": 4034,
      "Ġipinak": 4035,
      ",,": 4036,
      "ahilig": 4037,
      "Ġmachine": 4038,
      "Ġbangk": 4039,
      "ĠOffice": 4040,
      "Ġweek": 4041,
      "min": 4042,
      "Di": 4043,
      "Ġmost": 4044,
      "Ġkalik": 4045,
      "Ġpaniniwala": 4046,
      "Ġdala": 4047,
      "ĠBel": 4048,
      "Ġsasabihin": 4049,
      "ĠIg": 4050,
      "Ġpinto": 4051,
      "uriin": 4052,
      "Ġpagpapaluwang": 4053,
      "Ġdid": 4054,
      "enteng": 4055,
      "ĠMind": 4056,
      "Ġbinti": 4057,
      "Ġsamant": 4058,
      "Ġapplication": 4059,
      "ĠRem": 4060,
      "ungin": 4061,
      "ĠFer": 4062,
      "yuna": 4063,
      "Ġbefore": 4064,
      "Ġpasyente": 4065,
      "ayagan": 4066,
      "Ġess": 4067,
      "oke": 4068,
      "uyod": 4069,
      "Ġmagsasaka": 4070,
      "Ġdahan": 4071,
      "ĠPangulo": 4072,
      "ĠPagb": 4073,
      "Ġkagand": 4074,
      "Ġfilm": 4075,
      "ĠPe": 4076,
      "Ġnamum": 4077,
      "ĠHesus": 4078,
      "Al": 4079,
      "agaling": 4080,
      "Ġpalitan": 4081,
      "Ġpalabas": 4082,
      "Ġlinya": 4083,
      "illion": 4084,
      "eno": 4085,
      "Ġmaliban": 4086,
      "yun": 4087,
      "ĠPanginoong": 4088,
      "IB": 4089,
      "Ġener": 4090,
      "Ġposibleng": 4091,
      "Ġnabubuhay": 4092,
      "Ġawtor": 4093,
      "Ġpatakaran": 4094,
      "ney": 4095,
      "ua": 4096,
      "ĠSinabi": 4097,
      "Ġmalayo": 4098,
      "Ġpagkakaiba": 4099,
      "Ġgin": 4100,
      "ĠMr": 4101,
      "col": 4102,
      "irus": 4103,
      "UT": 4104,
      "Ġham": 4105,
      "Ġgovernment": 4106,
      "ĠRod": 4107,
      "Alam": 4108,
      "hah": 4109,
      "Ġty": 4110,
      "Ġtext": 4111,
      "Ġmisis": 4112,
      "time": 4113,
      "atao": 4114,
      "ĠCenter": 4115,
      "zz": 4116,
      "ffic": 4117,
      "ĠUnidos": 4118,
      "ube": 4119,
      "Ġproject": 4120,
      "Ġkulang": 4121,
      "ulangan": 4122,
      "Ġnanin": 4123,
      "ayapaan": 4124,
      "Ġlikas": 4125,
      "Ġaso": 4126,
      "Ġmarket": 4127,
      "aysay": 4128,
      "Ġpamumuhay": 4129,
      "ĠDavid": 4130,
      "Ġtabi": 4131,
      "Ġnaramdaman": 4132,
      "ĠKum": 4133,
      "Ġmakakatulong": 4134,
      "ĠJer": 4135,
      "Ġharapan": 4136,
      "au": 4137,
      "buhay": 4138,
      "Ġnakikipag": 4139,
      "ĠAN": 4140,
      "Ġmakas": 4141,
      "utusan": 4142,
      "Ġbinubuo": 4143,
      "Ġnaghahanap": 4144,
      "Ġkots": 4145,
      "âĢĿ,": 4146,
      "Ġpagkuha": 4147,
      "Ġlaser": 4148,
      "ĠRey": 4149,
      "Ar": 4150,
      "Ġkinuha": 4151,
      "dy": 4152,
      "ĠPam": 4153,
      "Ġtungkulin": 4154,
      "EP": 4155,
      "ues": 4156,
      "Ġmasarap": 4157,
      "Ġaktibidad": 4158,
      "ibili": 4159,
      "inawag": 4160,
      "Ġtumutulong": 4161,
      "Ġlarang": 4162,
      "Ġcast": 4163,
      "iliin": 4164,
      "Ġitinuturing": 4165,
      "bs": 4166,
      "ĠSila": 4167,
      "Ġtan": 4168,
      "Ġbuto": 4169,
      "Ġbituka": 4170,
      "Ġbutas": 4171,
      "OO": 4172,
      "Ġlink": 4173,
      "ĠShe": 4174,
      "ĠBarangay": 4175,
      "Ġeye": 4176,
      "ility": 4177,
      "Ġkababayan": 4178,
      "Ġgiardia": 4179,
      "ksyon": 4180,
      "onus": 4181,
      "Ġmobile": 4182,
      "Ġisina": 4183,
      "aramdam": 4184,
      "Ġpatay": 4185,
      "Ġlibog": 4186,
      "ĠPolice": 4187,
      "IY": 4188,
      "yaring": 4189,
      "Ġ198": 4190,
      "ĠEstados": 4191,
      "Ġedukasyon": 4192,
      "ĠWorld": 4193,
      "ensyon": 4194,
      "Ġnarar": 4195,
      "Ġpans": 4196,
      "Ġpanig": 4197,
      "Ġ40": 4198,
      "ikano": 4199,
      ".)": 4200,
      "Ġaniya": 4201,
      "tern": 4202,
      "Ġmagagawa": 4203,
      "Ġdays": 4204,
      "antayan": 4205,
      "inong": 4206,
      "ersa": 4207,
      "Ġganda": 4208,
      "Ġpareho": 4209,
      "Ġaddress": 4210,
      "burg": 4211,
      "Ġninyong": 4212,
      "Ġtwo": 4213,
      "\",\"": 4214,
      "Ġthese": 4215,
      "Ġdrug": 4216,
      "be": 4217,
      "bas": 4218,
      "abal": 4219,
      "Ġnawawala": 4220,
      "alikan": 4221,
      "Ġling": 4222,
      "ahon": 4223,
      "Ġpangkat": 4224,
      "Ġpagkal": 4225,
      "Ġdisenyo": 4226,
      "Ġworld": 4227,
      "Ġpalaging": 4228,
      "Ġinvest": 4229,
      "Ġepektibong": 4230,
      "Ġpananampalataya": 4231,
      "Ġhinaharap": 4232,
      "Ġinto": 4233,
      "Ġcircles": 4234,
      "Ġkalikasan": 4235,
      "Ġpors": 4236,
      "Ġlibro": 4237,
      "kado": 4238,
      "apekto": 4239,
      "antong": 4240,
      "adal": 4241,
      "Ġpoint": 4242,
      "amitin": 4243,
      "sy": 4244,
      "Ġtapat": 4245,
      "ech": 4246,
      "Ġalas": 4247,
      "Ġ21": 4248,
      "Ġfungus": 4249,
      "ities": 4250,
      "Ġbub": 4251,
      "ige": 4252,
      "Ġinaasahan": 4253,
      "Ma": 4254,
      "bal": 4255,
      "Ġuli": 4256,
      "ĠMon": 4257,
      "ipunan": 4258,
      "abog": 4259,
      "Ġpuro": 4260,
      "Ġpapunta": 4261,
      "Ġdamdamin": 4262,
      "itikan": 4263,
      "ĠBayan": 4264,
      "ugunan": 4265,
      "Ġsek": 4266,
      "Ġmaw": 4267,
      "Ġnumber": 4268,
      "Ġwa": 4269,
      "natiling": 4270,
      "Kahit": 4271,
      "ety": 4272,
      "example": 4273,
      "par": 4274,
      "Ġsena": 4275,
      "Ġindi": 4276,
      "ĠAir": 4277,
      "ryp": 4278,
      "Ġdro": 4279,
      "Ġartista": 4280,
      "Ġpagkakataong": 4281,
      "ulak": 4282,
      "Ġkalooban": 4283,
      "ke": 4284,
      "Ġacc": 4285,
      "ĠMark": 4286,
      "Ġkailanman": 4287,
      "Ġmanun": 4288,
      "Ġkaganap": 4289,
      "Ġkotse": 4290,
      "Ġpayo": 4291,
      "Ġkatunayan": 4292,
      "ding": 4293,
      "Ġnaisip": 4294,
      "Ġsad": 4295,
      "Ġiniisip": 4296,
      "Ġkinak": 4297,
      "Ġmangyayari": 4298,
      "ĠFranc": 4299,
      "HE": 4300,
      "Ġ23": 4301,
      "ball": 4302,
      "http": 4303,
      "ĠKong": 4304,
      "Ġkilalang": 4305,
      "Ġopin": 4306,
      "ĠEnglish": 4307,
      "abilis": 4308,
      "Ġparty": 4309,
      "Habang": 4310,
      "phone": 4311,
      "Ġsent": 4312,
      "leto": 4313,
      "Ġair": 4314,
      "ahatid": 4315,
      "Ġmalinis": 4316,
      "bigay": 4317,
      "ikat": 4318,
      "langin": 4319,
      "Mat": 4320,
      "Ġkrim": 4321,
      "urse": 4322,
      "ills": 4323,
      "Ġnagpapakita": 4324,
      "Ġlupain": 4325,
      "âĢ¦âĢĿ": 4326,
      "ĠTsina": 4327,
      "tan": 4328,
      "arl": 4329,
      "andaigdig": 4330,
      "Ġpagna": 4331,
      "Ġnagpapah": 4332,
      "inanong": 4333,
      "Ġenerhiya": 4334,
      "Ġcho": 4335,
      "Ġalak": 4336,
      "Ġbers": 4337,
      "Ġinc": 4338,
      "Ġmahigpit": 4339,
      "osto": 4340,
      "ĠPana": 4341,
      "Ġmatanda": 4342,
      "Ġganyan": 4343,
      "iit": 4344,
      "tres": 4345,
      "ubre": 4346,
      "Ġstat": 4347,
      "Ġlot": 4348,
      "ĠBre": 4349,
      "yle": 4350,
      "Ġnait": 4351,
      "Ġtampok": 4352,
      "Ġdulot": 4353,
      "ahas": 4354,
      "Ġrequ": 4355,
      "ogle": 4356,
      "Ġyon": 4357,
      "Ġmismong": 4358,
      "ĠSana": 4359,
      "els": 4360,
      "Ġnumero": 4361,
      "Ġilagay": 4362,
      "Ġperpek": 4363,
      "Ġtinit": 4364,
      "ĠSab": 4365,
      "ubay": 4366,
      "Ġhapon": 4367,
      "ibigyan": 4368,
      "Ġpumili": 4369,
      "Ġgroup": 4370,
      "ĠYung": 4371,
      "ĠIr": 4372,
      "irm": 4373,
      "nalo": 4374,
      "bahay": 4375,
      "SA": 4376,
      "for": 4377,
      "Ġsoft": 4378,
      "ginip": 4379,
      "lag": 4380,
      "Ġfolk": 4381,
      "outh": 4382,
      "DA": 4383,
      "Ġbud": 4384,
      "uts": 4385,
      "ards": 4386,
      "ĠAbr": 4387,
      "Ġposibilidad": 4388,
      "Ġkakulangan": 4389,
      "dan": 4390,
      "rus": 4391,
      "alawak": 4392,
      "Ġmarahil": 4393,
      "Ġblack": 4394,
      "rip": 4395,
      "Ġ2012": 4396,
      "Ġhinggil": 4397,
      "iisa": 4398,
      "ĠDito": 4399,
      "ruz": 4400,
      "Ġprins": 4401,
      "Ġlumikha": 4402,
      "ĠStar": 4403,
      "Ñĭ": 4404,
      "Ġliwanag": 4405,
      "Ġmatagumpay": 4406,
      "Ġisipan": 4407,
      "Ġpagkakas": 4408,
      "aalis": 4409,
      "irinig": 4410,
      "Ġ22": 4411,
      "ĠPags": 4412,
      "araniwang": 4413,
      "Ġdoc": 4414,
      "ablo": 4415,
      "Mal": 4416,
      "Ġpagkat": 4417,
      "ĠJapan": 4418,
      "amahan": 4419,
      "edy": 4420,
      "ĠBanal": 4421,
      "Ġangkop": 4422,
      "uporta": 4423,
      "Ġnangung": 4424,
      "Ġsib": 4425,
      "akal": 4426,
      "inta": 4427,
      "Ġpass": 4428,
      "Ġbayad": 4429,
      "Ġmilyong": 4430,
      "kw": 4431,
      "Ġsens": 4432,
      "Ġbilis": 4433,
      "Ġlaw": 4434,
      "abet": 4435,
      "Ġpage": 4436,
      "ĠSecretary": 4437,
      "aalam": 4438,
      "less": 4439,
      "akilala": 4440,
      "Ġlap": 4441,
      "Ġdaigdig": 4442,
      "Ã©": 4443,
      "ubog": 4444,
      "Ġpinuno": 4445,
      "ublic": 4446,
      "ayaw": 4447,
      "utong": 4448,
      "acter": 4449,
      "Ġpinagm": 4450,
      "hip": 4451,
      "ani": 4452,
      "orr": 4453,
      "ĠPal": 4454,
      "Ġfollow": 4455,
      "Ġkada": 4456,
      "Ġatt": 4457,
      "ĠHow": 4458,
      "Ġmasa": 4459,
      "Ġchild": 4460,
      "Ġsomet": 4461,
      "Ġyum": 4462,
      "Ġempley": 4463,
      "Ġlng": 4464,
      "Hal": 4465,
      "Ġugat": 4466,
      "uhunan": 4467,
      "pakinabang": 4468,
      "ihinal": 4469,
      "atauhan": 4470,
      "Ġlabanan": 4471,
      "Ġisipin": 4472,
      "bot": 4473,
      "Ġumabot": 4474,
      "Ġburat": 4475,
      "Ġpaglalaro": 4476,
      "amahala": 4477,
      "Ġsupport": 4478,
      "diriwang": 4479,
      "We": 4480,
      "Ġcle": 4481,
      "Ġbrow": 4482,
      "awal": 4483,
      "Ġheart": 4484,
      "az": 4485,
      "pot": 4486,
      "akyat": 4487,
      "intulot": 4488,
      "vail": 4489,
      "ĠKasi": 4490,
      "Ġmahahalagang": 4491,
      "ukasan": 4492,
      "Ġdef": 4493,
      "Ġpalat": 4494,
      "Ġdiyan": 4495,
      "Ġkasong": 4496,
      "ĠRich": 4497,
      "Ġmaikling": 4498,
      "ĠNi": 4499,
      "Ġipakita": 4500,
      "Ġokay": 4501,
      "Maraming": 4502,
      "ĠKim": 4503,
      "ted": 4504,
      "Ġside": 4505,
      "ils": 4506,
      "Ġskin": 4507,
      "Ġlumang": 4508,
      "Ġtake": 4509,
      "Ġmaunawaan": 4510,
      "Ġsilid": 4511,
      "Ġekonomiya": 4512,
      "ni": 4513,
      "yag": 4514,
      "Ġnamam": 4515,
      "uwento": 4516,
      "He": 4517,
      "Upang": 4518,
      "undok": 4519,
      "orpor": 4520,
      "akuha": 4521,
      "Ġituring": 4522,
      "Ġsto": 4523,
      "Ġputing": 4524,
      "uluwa": 4525,
      "ĠPO": 4526,
      "Ġ2018": 4527,
      "Ġâ": 4528,
      "Ġnext": 4529,
      "orks": 4530,
      "ĠPinag": 4531,
      "Ġmerkado": 4532,
      "Ġslot": 4533,
      "PA": 4534,
      "otoo": 4535,
      "Ġkinakailangang": 4536,
      "abor": 4537,
      "ĠTim": 4538,
      "Ġkals": 4539,
      "dala": 4540,
      "the": 4541,
      "ĠðŁ": 4542,
      "ukunan": 4543,
      "Ġutos": 4544,
      "ĠMel": 4545,
      "ĠJust": 4546,
      "Ay": 4547,
      "yonar": 4548,
      "ĠHer": 4549,
      "ĠRed": 4550,
      "ĠRuss": 4551,
      "ĠSubalit": 4552,
      "Ġganoon": 4553,
      "ms": 4554,
      "Ġipinang": 4555,
      "Ġcontr": 4556,
      "come": 4557,
      "Ġorganisasyon": 4558,
      "Ġmess": 4559,
      "arra": 4560,
      "rough": 4561,
      "ĠBal": 4562,
      "Ġadv": 4563,
      "âĢĶâĢĶ": 4564,
      "Ġdriver": 4565,
      "Ġpriv": 4566,
      "ampoo": 4567,
      "Ġ2013": 4568,
      "Ġmagaling": 4569,
      "Ġmalusog": 4570,
      "Ġuminom": 4571,
      "yarihang": 4572,
      "Ġkontrol": 4573,
      "Ġnon": 4574,
      "abit": 4575,
      "Ġnakatira": 4576,
      "LE": 4577,
      "erte": 4578,
      "imum": 4579,
      "Ġpahina": 4580,
      "Oo": 4581,
      "pal": 4582,
      "Ġ*": 4583,
      "Ġmamb": 4584,
      "Ġpict": 4585,
      "Ġname": 4586,
      "ugma": 4587,
      "Ġshort": 4588,
      "Ġbisita": 4589,
      "ĠTin": 4590,
      "Ġphoto": 4591,
      "Ġngang": 4592,
      "Ġreport": 4593,
      "Ġnaglalaman": 4594,
      "Ġatay": 4595,
      "Ġguy": 4596,
      "ĠDo": 4597,
      "Ġkahapon": 4598,
      "dock": 4599,
      "Ġwakas": 4600,
      "aalaga": 4601,
      "Ġtaya": 4602,
      "Ġgame": 4603,
      "Ġlevel": 4604,
      "host": 4605,
      "Ġsame": 4606,
      "Ġdirek": 4607,
      "Ġmagagandang": 4608,
      "igat": 4609,
      "Ġleeg": 4610,
      "Ġbuntis": 4611,
      "ĠPad": 4612,
      "atingin": 4613,
      "areho": 4614,
      "Maaari": 4615,
      "Ġrebolus": 4616,
      "ki": 4617,
      "til": 4618,
      "igr": 4619,
      "Ġpunto": 4620,
      "adali": 4621,
      "leg": 4622,
      "Ġtool": 4623,
      "Bilang": 4624,
      "Ġdown": 4625,
      "Ġhita": 4626,
      "unahan": 4627,
      "ient": 4628,
      "Ġnail": 4629,
      "ĠKris": 4630,
      "oma": 4631,
      "read": 4632,
      "Ġche": 4633,
      "Ġkadalas": 4634,
      "ĠBukod": 4635,
      "icle": 4636,
      "ampa": 4637,
      "ergy": 4638,
      "uthor": 4639,
      "ĠBum": 4640,
      "Ġbeing": 4641,
      "Ġartikulo": 4642,
      "Ġà¦": 4643,
      "Ġtinig": 4644,
      "ĠInternational": 4645,
      "Ġnagsisimula": 4646,
      "Ġrehiyon": 4647,
      "Ġbenepisyo": 4648,
      "Ġgus": 4649,
      "Ġtuluyan": 4650,
      "Ġpalang": 4651,
      "Ġsamantalang": 4652,
      "icy": 4653,
      "ĠIf": 4654,
      "Ġmakilala": 4655,
      "Ġpangulo": 4656,
      "Ġnegos": 4657,
      "CP": 4658,
      "Ġospital": 4659,
      "Ġpur": 4660,
      "alakihan": 4661,
      "Ġmanipis": 4662,
      "à§": 4663,
      "ilaan": 4664,
      "Ġkatan": 4665,
      "alimutan": 4666,
      "kl": 4667,
      "zo": 4668,
      "alya": 4669,
      "Ġisinas": 4670,
      "uhod": 4671,
      "Ġprib": 4672,
      "Ġbasahin": 4673,
      "Ġmanalo": 4674,
      "Ġtelep": 4675,
      "Ġmanat": 4676,
      "Ġnapansin": 4677,
      "Ġnatatang": 4678,
      "Ġsandaling": 4679,
      "unsad": 4680,
      "lec": 4681,
      "alon": 4682,
      "Ġstar": 4683,
      "Ġpaksa": 4684,
      "led": 4685,
      "Ġsapagka": 4686,
      "ival": 4687,
      "Ġtemper": 4688,
      "ave": 4689,
      "may": 4690,
      "inter": 4691,
      "Ġne": 4692,
      "ababa": 4693,
      "ikayat": 4694,
      "Ġ2016": 4695,
      "Ġpower": 4696,
      "Ġprop": 4697,
      "Ġnatat": 4698,
      "Ġ2019": 4699,
      "Ġperson": 4700,
      "Ġpelikulang": 4701,
      "Ġkapital": 4702,
      "laban": 4703,
      "oot": 4704,
      "ten": 4705,
      "Ġtod": 4706,
      "Ġbunga": 4707,
      "Ġkakayahang": 4708,
      "agram": 4709,
      "Ġpagkatao": 4710,
      "hair": 4711,
      "ĠUr": 4712,
      "udulot": 4713,
      "Ġilaw": 4714,
      "witter": 4715,
      "Mula": 4716,
      "ĠWh": 4717,
      "Pang": 4718,
      "Ġaktres": 4719,
      "Ġikalawang": 4720,
      "Ġgas": 4721,
      "Ġpagkilos": 4722,
      "click": 4723,
      "Mar": 4724,
      "bel": 4725,
      "esn": 4726,
      "ugal": 4727,
      "Ġsangkatauhan": 4728,
      "iyas": 4729,
      "Ġkahirapan": 4730,
      "Ġhead": 4731,
      "Ġbirth": 4732,
      "'m": 4733,
      "back": 4734,
      "Ġsund": 4735,
      "ĠCruz": 4736,
      "HHHH": 4737,
      "Ġkaganapan": 4738,
      "den": 4739,
      "ĠPer": 4740,
      "akatuwid": 4741,
      "ĠArt": 4742,
      "Ġkalsada": 4743,
      "histro": 4744,
      "lar": 4745,
      "ales": 4746,
      "Ġmagbibigay": 4747,
      "Ġempleyado": 4748,
      "ĠNet": 4749,
      "ĠWord": 4750,
      "Ġjo": 4751,
      "download": 4752,
      "ji": 4753,
      "tar": 4754,
      "vol": 4755,
      "Ġpanaginip": 4756,
      "Ġrelihiyon": 4757,
      "Ġkaaway": 4758,
      "Ġmaib": 4759,
      "Ġever": 4760,
      "ektahan": 4761,
      "Ġpaki": 4762,
      "Ġ2017": 4763,
      "ĠAraw": 4764,
      "aham": 4765,
      "urn": 4766,
      "ĠBer": 4767,
      "inese": 4768,
      "ape": 4769,
      "ĠSapag": 4770,
      "Ġstand": 4771,
      "Ġlarangan": 4772,
      "Ġnaip": 4773,
      "asy": 4774,
      "ĠMac": 4775,
      "Ġpamamahala": 4776,
      "ights": 4777,
      "Ġopisina": 4778,
      "alok": 4779,
      "Ġ28": 4780,
      "orma": 4781,
      "Ġkaluluwa": 4782,
      "angkop": 4783,
      "kak": 4784,
      "Ġsch": 4785,
      "Ġinst": 4786,
      "Ġkaragdagan": 4787,
      "Kas": 4788,
      "Ġboses": 4789,
      "ĠNags": 4790,
      "Ġnakilala": 4791,
      "Ġkaugnayan": 4792,
      "Ġprocess": 4793,
      "Ġkapaki": 4794,
      "Ġbonus": 4795,
      "Ġyugto": 4796,
      "resent": 4797,
      "Ġfriends": 4798,
      "Ġpir": 4799,
      "Ġbawal": 4800,
      "Ġsubukan": 4801,
      "Ġmany": 4802,
      "Ġpaghahanap": 4803,
      "Ġpropesyonal": 4804,
      "Ġalaga": 4805,
      "oooo": 4806,
      "Ġlegal": 4807,
      "ĠBro": 4808,
      "eph": 4809,
      "ĠWillie": 4810,
      "Ġdetalye": 4811,
      "lock": 4812,
      "Ġservice": 4813,
      "Ġkg": 4814,
      "ilig": 4815,
      "Ġ+": 4816,
      "Ġkumpl": 4817,
      "Ġtatlo": 4818,
      "Ġdiskarte": 4819,
      "Ġdroga": 4820,
      "Ġpinsala": 4821,
      "ima": 4822,
      "Ġmodern": 4823,
      "IV": 4824,
      "ĠPum": 4825,
      "Ġwit": 4826,
      "ugust": 4827,
      "truc": 4828,
      "Ġproduksyon": 4829,
      "Ġhome": 4830,
      "ĠKo": 4831,
      "Ġkaunting": 4832,
      "Ġumuwi": 4833,
      "inggan": 4834,
      "ĠAnak": 4835,
      "Ġown": 4836,
      "thing": 4837,
      "Ġresidente": 4838,
      "uridad": 4839,
      "lege": 4840,
      "Ġalways": 4841,
      "Ġkabuuang": 4842,
      "Ġmult": 4843,
      "Ġmaling": 4844,
      "Ġshowbiz": 4845,
      "Ġplatform": 4846,
      "Ġunit": 4847,
      "order": 4848,
      "Ġpinakamalaking": 4849,
      "Ngayon": 4850,
      "tory": 4851,
      "tag": 4852,
      "igasyon": 4853,
      "Ġwar": 4854,
      "Ġnasas": 4855,
      "Ġlider": 4856,
      "ĠLang": 4857,
      "Ġpanin": 4858,
      "BA": 4859,
      "Ġkinat": 4860,
      "Ġmayaman": 4861,
      "ĠGan": 4862,
      "Ġnatit": 4863,
      "Ġpanay": 4864,
      "anata": 4865,
      "utos": 4866,
      "aklak": 4867,
      "urity": 4868,
      "ĠIlang": 4869,
      "ĠTulad": 4870,
      "Nat": 4871,
      "osmet": 4872,
      "Ġehersisyo": 4873,
      "Ġnaganap": 4874,
      "entral": 4875,
      "Ġawtoridad": 4876,
      "vi": 4877,
      "ĠSuper": 4878,
      "Ġdigma": 4879,
      "Ġparin": 4880,
      "utulong": 4881,
      "ials": 4882,
      "ĠKuya": 4883,
      "ette": 4884,
      "Ġmail": 4885,
      "tao": 4886,
      "ists": 4887,
      "200": 4888,
      "ĊĊ": 4889,
      "Ġfeed": 4890,
      "Ġcel": 4891,
      "Ġkalayaan": 4892,
      "Ġcond": 4893,
      "Sin": 4894,
      "ĠNil": 4895,
      "Ġtaas": 4896,
      "Ġkapayapaan": 4897,
      "Ġpaglalakbay": 4898,
      "Ġhappy": 4899,
      "osyon": 4900,
      "OM": 4901,
      "agpuan": 4902,
      "upit": 4903,
      "Ġserye": 4904,
      "vo": 4905,
      "Ġsun": 4906,
      "Ġaral": 4907,
      "Ġsinumang": 4908,
      "ĠMinsan": 4909,
      "Ġgulay": 4910,
      "Ġcam": 4911,
      "ukhang": 4912,
      "check": 4913,
      "yunal": 4914,
      "Ġtina": 4915,
      "Ġthose": 4916,
      "So": 4917,
      "osible": 4918,
      "Ġ2010": 4919,
      "Ġproduktong": 4920,
      "usta": 4921,
      "Ġconf": 4922,
      "ĠOFW": 4923,
      "Ġbinigyan": 4924,
      "Ġana": 4925,
      "ature": 4926,
      "Ġparasite": 4927,
      "Ġpagbabayad": 4928,
      "Ġpinagb": 4929,
      "Ġgumagana": 4930,
      "Ġmaaga": 4931,
      "truk": 4932,
      "Ġpangkalahatang": 4933,
      "Ġbih": 4934,
      "ĠRec": 4935,
      "ĠOo": 4936,
      "You": 4937,
      "Ġtry": 4938,
      "Ġpalad": 4939,
      "iin": 4940,
      "kung": 4941,
      "ĠNasa": 4942,
      "Ġpagpasok": 4943,
      "?!": 4944,
      "oda": 4945,
      "hout": 4946,
      "uyang": 4947,
      "ĠDec": 4948,
      "irerek": 4949,
      "Ġpinili": 4950,
      "Ġprotina": 4951,
      "ĠIkaw": 4952,
      "ĠFrancis": 4953,
      "ĠMayo": 4954,
      "bp": 4955,
      "Ġala": 4956,
      "Ġtax": 4957,
      "Ġalm": 4958,
      "Ġginawang": 4959,
      "Ġtinawag": 4960,
      "ĠTapos": 4961,
      "ĠSet": 4962,
      "ĠJr": 4963,
      "alista": 4964,
      "26": 4965,
      "kay": 4966,
      "Ġpunong": 4967,
      "ibaka": 4968,
      "tol": 4969,
      "ĠInst": 4970,
      "eksiyon": 4971,
      "Ġist": 4972,
      "che": 4973,
      "Ġval": 4974,
      "ination": 4975,
      "Ġdeal": 4976,
      "28": 4977,
      "ilbing": 4978,
      "Ġibigay": 4979,
      "Ġpagpili": 4980,
      "eron": 4981,
      "apy": 4982,
      "osa": 4983,
      "Ġpast": 4984,
      "Ġtunog": 4985,
      "redo": 4986,
      "ĠBin": 4987,
      "oper": 4988,
      "Ġkasangk": 4989,
      "Ġpagtaya": 4990,
      "Ġber": 4991,
      "Ġwrit": 4992,
      "Ġorihinal": 4993,
      "Ġkalalakihan": 4994,
      "Ġuser": 4995,
      "ĠOnline": 4996,
      "Ġpetsa": 4997,
      "Ġtindahan": 4998,
      "edro": 4999,
      "Ġtatay": 5000,
      "udio": 5001,
      "last": 5002,
      "Ġnever": 5003,
      "Ġsem": 5004,
      "iks": 5005,
      "ĠHapon": 5006,
      "Ġtoo": 5007,
      "Ġnagtatrabaho": 5008,
      "UP": 5009,
      "Ġpilit": 5010,
      "Ġmakap": 5011,
      "Ġmakamit": 5012,
      "ĠMic": 5013,
      "Ġlibre": 5014,
      "Ġ197": 5015,
      "Ġkuwarto": 5016,
      "ENT": 5017,
      "Ġgamutin": 5018,
      "Ġpil": 5019,
      "Ð°": 5020,
      "Ġroon": 5021,
      "ĠPo": 5022,
      "ĠSen": 5023,
      "Ġcook": 5024,
      "Ġkadahil": 5025,
      "Ġemploy": 5026,
      "Ġmilyon": 5027,
      "Ġpopular": 5028,
      "Ġpagod": 5029,
      "Ġfans": 5030,
      "oder": 5031,
      "ardo": 5032,
      "Ġarea": 5033,
      "Ġpisikal": 5034,
      "Sabi": 5035,
      "ahinga": 5036,
      "ĠCal": 5037,
      "ĠTom": 5038,
      "Ġpaglilinis": 5039,
      "Ġmanunulat": 5040,
      "alif": 5041,
      "ove": 5042,
      "ahad": 5043,
      "alingan": 5044,
      "ĠAllah": 5045,
      "vailable": 5046,
      "Ã¢": 5047,
      "Ġ2011": 5048,
      "Ġquest": 5049,
      "Ġfile": 5050,
      "Ġginagawang": 5051,
      "Ġmagsis": 5052,
      "Ã¡ng": 5053,
      "UNG": 5054,
      "ages": 5055,
      "Ġdalhin": 5056,
      "Pagkatapos": 5057,
      "osc": 5058,
      "Ġref": 5059,
      "angkin": 5060,
      "ĠVic": 5061,
      "ĠSino": 5062,
      "ĠGeneral": 5063,
      "Ġ27": 5064,
      "Ġpray": 5065,
      "ĠNov": 5066,
      "Ġkarapatang": 5067,
      "ĠRodr": 5068,
      "self": 5069,
      "ĠPak": 5070,
      "Ġred": 5071,
      "Ġnalaman": 5072,
      "Ġumu": 5073,
      "Ġkapal": 5074,
      "annel": 5075,
      "Ġtinap": 5076,
      "Ġlog": 5077,
      "ĠCas": 5078,
      "Ġlemon": 5079,
      "Ġview": 5080,
      "ebu": 5081,
      "Ġtelepono": 5082,
      "ĠPM": 5083,
      "Ġsince": 5084,
      "Ġcrus": 5085,
      "Ġnadagdagan": 5086,
      "Ġlandas": 5087,
      "ister": 5088,
      "ĠAM": 5089,
      "unduan": 5090,
      "Ġmapa": 5091,
      "Ġklas": 5092,
      "Ġhouse": 5093,
      "Ġmagamit": 5094,
      "Ġpanuk": 5095,
      "ĠTrans": 5096,
      "27": 5097,
      "Ġnight": 5098,
      "Ġthough": 5099,
      "ilib": 5100,
      "unuan": 5101,
      "ihing": 5102,
      "Ġnetiz": 5103,
      "inh": 5104,
      "Ġkumb": 5105,
      "ĠBagong": 5106,
      "ss": 5107,
      "uit": 5108,
      "Ġuse": 5109,
      "istr": 5110,
      "ĠSantos": 5111,
      "wede": 5112,
      "inc": 5113,
      "awid": 5114,
      "Ġkopo": 5115,
      "Ġnational": 5116,
      "ĠAmerika": 5117,
      "Ik": 5118,
      "Ġhorm": 5119,
      "ĠVill": 5120,
      "lesia": 5121,
      "ym": 5122,
      "ĠBig": 5123,
      "Ġsinasabing": 5124,
      "OW": 5125,
      "Ġmahihirap": 5126,
      "Ġlumitaw": 5127,
      "amilya": 5128,
      "Ġmabuhay": 5129,
      "FP": 5130,
      "Ġkinalaman": 5131,
      "gawa": 5132,
      "ĠAp": 5133,
      "ecut": 5134,
      "unes": 5135,
      "Ġeksena": 5136,
      "ĠMindanao": 5137,
      "ĠPac": 5138,
      "Ġmasakit": 5139,
      "ateg": 5140,
      "uga": 5141,
      "uff": 5142,
      "abo": 5143,
      "ukin": 5144,
      "Ġear": 5145,
      "Ġnapat": 5146,
      "Ġbot": 5147,
      "Ġata": 5148,
      "imili": 5149,
      "ĠAmerikano": 5150,
      "ument": 5151,
      "Ġnagsabi": 5152,
      "iving": 5153,
      "Ġbulating": 5154,
      "Ġpangalawang": 5155,
      "Ġprutas": 5156,
      "pect": 5157,
      "ambing": 5158,
      "Ġkabuuan": 5159,
      "amantalang": 5160,
      "Ġkatanungan": 5161,
      "Ġkoponan": 5162,
      "Ġpalagi": 5163,
      "Ġol": 5164,
      "egr": 5165,
      "ores": 5166,
      "ĠMiss": 5167,
      "ugin": 5168,
      "atakot": 5169,
      "inagawa": 5170,
      "Ġpaliwanag": 5171,
      "Ġepektibo": 5172,
      "sc": 5173,
      "sunod": 5174,
      "Ġwhy": 5175,
      "vices": 5176,
      "Ġmahilig": 5177,
      "Ġpano": 5178,
      "inay": 5179,
      "Ġfind": 5180,
      "oman": 5181,
      "Ġmasus": 5182,
      "ĠFlor": 5183,
      "Ġbababa": 5184,
      "Huwag": 5185,
      "ux": 5186,
      "zing": 5187,
      "Ġaktor": 5188,
      "Ġmagkas": 5189,
      "Ġ2020": 5190,
      "orona": 5191,
      "ii": 5192,
      "Ġtemperatura": 5193,
      "uod": 5194,
      "Ġsim": 5195,
      "Ġhugis": 5196,
      "Ġamoy": 5197,
      "ĠCommission": 5198,
      "Bukod": 5199,
      "ĠApp": 5200,
      "Ġpagtuturo": 5201,
      "oloh": 5202,
      "Ġnakalipas": 5203,
      "abata": 5204,
      "Ġcheck": 5205,
      "asin": 5206,
      "usulat": 5207,
      "uportahan": 5208,
      "akasal": 5209,
      "alitang": 5210,
      "asahan": 5211,
      "Ġutang": 5212,
      "awit": 5213,
      "esery": 5214,
      "usal": 5215,
      "ĠPost": 5216,
      "Ġpangh": 5217,
      "Ġsakaling": 5218,
      "Ġsimulan": 5219,
      "amis": 5220,
      "alakay": 5221,
      "ectr": 5222,
      "ĠChinese": 5223,
      "Ġtanggapin": 5224,
      "Ġtugon": 5225,
      "Ġey": 5226,
      "TV": 5227,
      "Tum": 5228,
      "of": 5229,
      "Ġdyan": 5230,
      "abae": 5231,
      "Ġshop": 5232,
      "ĠSarah": 5233,
      "Ġtumulong": 5234,
      "ektado": 5235,
      "Gusto": 5236,
      "Ġmid": 5237,
      "awat": 5238,
      "Ġkinik": 5239,
      "Ġbreak": 5240,
      "Ġbanal": 5241,
      "EM": 5242,
      "hol": 5243,
      "Ġ26": 5244,
      "Ġactor": 5245,
      "Ġwhere": 5246,
      "alaban": 5247,
      "ahid": 5248,
      "dies": 5249,
      "Ġlocal": 5250,
      "Ġprobins": 5251,
      "lin": 5252,
      "ĠNob": 5253,
      "iron": 5254,
      "Ġkatas": 5255,
      "ðĿĹ": 5256,
      "Ġinumin": 5257,
      "iano": 5258,
      "Ġparte": 5259,
      "Ġkausap": 5260,
      "omen": 5261,
      "akasama": 5262,
      "Ġatbp": 5263,
      "ĠKasama": 5264,
      "Ġsobra": 5265,
      "ĠMetro": 5266,
      "ĠBaka": 5267,
      "Ġnakaraan": 5268,
      "ĠOc": 5269,
      "ending": 5270,
      "ĠGl": 5271,
      "Ġkamag": 5272,
      "uklasan": 5273,
      "Ġpalatandaan": 5274,
      "Ġaccess": 5275,
      "Ġsecond": 5276,
      "Ġumiiral": 5277,
      "Ġmakina": 5278,
      "untahan": 5279,
      "Ġapl": 5280,
      "inda": 5281,
      "ically": 5282,
      "40": 5283,
      "Ġbandang": 5284,
      "ready": 5285,
      "Ġtabletas": 5286,
      "iso": 5287,
      "ĠMin": 5288,
      "Ġcy": 5289,
      "iona": 5290,
      "!!!!": 5291,
      "Ġgawaing": 5292,
      "ĠDef": 5293,
      "itening": 5294,
      "Ġlumapit": 5295,
      "''": 5296,
      "Ġenter": 5297,
      "Ġmagawa": 5298,
      "ĠIl": 5299,
      "ungkahi": 5300,
      "laim": 5301,
      "enef": 5302,
      "iber": 5303,
      "Ġpartido": 5304,
      "ĠEnero": 5305,
      "Ġungol": 5306,
      "Ġfeeling": 5307,
      "Ġlight": 5308,
      "ĠAte": 5309,
      "Ġcomment": 5310,
      "hasa": 5311,
      "wento": 5312,
      "itiko": 5313,
      "ĠBook": 5314,
      "oker": 5315,
      "Ġinspir": 5316,
      "isitahin": 5317,
      "Ġhih": 5318,
      "ucation": 5319,
      "ield": 5320,
      "post": 5321,
      "scr": 5322,
      "à¤": 5323,
      "ilidad": 5324,
      "ĠSchool": 5325,
      "leng": 5326,
      "Ġoffice": 5327,
      "Lum": 5328,
      "Ġhumingi": 5329,
      "erald": 5330,
      "ĠReview": 5331,
      "Ġcontrol": 5332,
      "29": 5333,
      "Ġpund": 5334,
      "Ġcenter": 5335,
      "Ġeto": 5336,
      "awakan": 5337,
      "Ġnagmula": 5338,
      "Ġsoftware": 5339,
      "ĠOh": 5340,
      "Ġipap": 5341,
      "Ġkape": 5342,
      "Ġtulungan": 5343,
      "ĠVice": 5344,
      "aining": 5345,
      "Ġwhile": 5346,
      "Ġrating": 5347,
      "obo": 5348,
      "Ġexperience": 5349,
      "ulugang": 5350,
      "uusap": 5351,
      "Ġord": 5352,
      "ipan": 5353,
      "Ġpaghih": 5354,
      "Ġkasabay": 5355,
      "Ġitina": 5356,
      "Ġbaga": 5357,
      "Ġbahag": 5358,
      "Ġkumpara": 5359,
      "ems": 5360,
      "Ġmagkaka": 5361,
      "Ġphone": 5362,
      "ĠPNP": 5363,
      "ĠSat": 5364,
      "ĠKag": 5365,
      "ĠLor": 5366,
      "ĠGar": 5367,
      "Ġilog": 5368,
      "Ġnakar": 5369,
      "Ġcould": 5370,
      "inawakan": 5371,
      "Ġmasasabi": 5372,
      "rer": 5373,
      "ĠØ": 5374,
      "Ġbad": 5375,
      "ĠAking": 5376,
      "Ġwin": 5377,
      "ĠUP": 5378,
      "ĠGoogle": 5379,
      "ugg": 5380,
      "Ġspecial": 5381,
      "Ġmamatay": 5382,
      "ired": 5383,
      "ĠMuslim": 5384,
      "ayaran": 5385,
      "itis": 5386,
      "Ġthrough": 5387,
      "ĠHouse": 5388,
      "ĠFace": 5389,
      "Ġtumayo": 5390,
      "Ġpilipinas": 5391,
      "ayanan": 5392,
      "Ġbundok": 5393,
      "ograp": 5394,
      "ambot": 5395,
      "Ġ2015": 5396,
      "Ġkagandahan": 5397,
      "ror": 5398,
      "Ġsomething": 5399,
      "ĠPre": 5400,
      "Ġginto": 5401,
      "Ġoo": 5402,
      "aragdag": 5403,
      "igi": 5404,
      "Ġkatap": 5405,
      "Ġanu": 5406,
      "ĠAlf": 5407,
      "ĠInternet": 5408,
      "win": 5409,
      "Ġcountry": 5410,
      "Ġnatatanging": 5411,
      "Ġpagbuo": 5412,
      "Ġkalaban": 5413,
      "jor": 5414,
      "aker": 5415,
      "Ġask": 5416,
      "Ġcompany": 5417,
      "Ġpagsisikap": 5418,
      "ilaw": 5419,
      "Ġpangm": 5420,
      "Ġpaningin": 5421,
      "Ġju": 5422,
      "igital": 5423,
      "ĠBibliya": 5424,
      "YON": 5425,
      "Ġsta": 5426,
      "Ġhusto": 5427,
      "ĠHun": 5428,
      "Ġsige": 5429,
      "ĠDibdib": 5430,
      "antad": 5431,
      "Ġlumalabas": 5432,
      "ĠIslam": 5433,
      "Ġsiyempre": 5434,
      "Ġissue": 5435,
      "ĠHigh": 5436,
      "Ðµ": 5437,
      "Ġlahi": 5438,
      "round": 5439,
      "Ġnilikha": 5440,
      "Ġpandem": 5441,
      "abayad": 5442,
      "access": 5443,
      "Ġgagamitin": 5444,
      "Ġdepende": 5445,
      "ĠOng": 5446,
      "fect": 5447,
      "lib": 5448,
      "ox": 5449,
      "sama": 5450,
      "alk": 5451,
      "Ġfat": 5452,
      "Ġfacials": 5453,
      "sin": 5454,
      "asing": 5455,
      "ilalang": 5456,
      "unic": 5457,
      "Ġ:)": 5458,
      "Ġkanta": 5459,
      "Ġsama": 5460,
      "igal": 5461,
      "ĠSalamat": 5462,
      "ĠKristo": 5463,
      "Ġstud": 5464,
      "Ġsuppl": 5465,
      "Ġmoney": 5466,
      "Ġpangangalaga": 5467,
      "Ġpampubl": 5468,
      "Sh": 5469,
      "Ġincl": 5470,
      "Ġpangako": 5471,
      "Ġsiglo": 5472,
      "Ġtagalog": 5473,
      "Ġmassage": 5474,
      "Ġsports": 5475,
      "Ġpagpup": 5476,
      "ĠMarso": 5477,
      "Ġnilalang": 5478,
      "aktura": 5479,
      "emat": 5480,
      "Ġkunin": 5481,
      "ĠKailan": 5482,
      "Ġbersyon": 5483,
      "ĠBiy": 5484,
      "ĠTO": 5485,
      "Ġkasiyahan": 5486,
      "ensyal": 5487,
      "redit": 5488,
      "Ġrebolusyonar": 5489,
      "uusapan": 5490,
      "Ġlihim": 5491,
      "orin": 5492,
      "ĠLit": 5493,
      "ĠWhat": 5494,
      "Ġvac": 5495,
      "Ġpuwede": 5496,
      "unch": 5497,
      "ukang": 5498,
      "irma": 5499,
      "estic": 5500,
      "Ġpresent": 5501,
      "Ġnaghah": 5502,
      "Ġ2009": 5503,
      "Ġret": 5504,
      "ĠPagl": 5505,
      "nakaw": 5506,
      "Ġkalamnan": 5507,
      "ansa": 5508,
      "Ġbanda": 5509,
      "ĠBoy": 5510,
      "Ġyang": 5511,
      "Ġpaulit": 5512,
      "edyong": 5513,
      "ĠLinggo": 5514,
      "Ġkabut": 5515,
      "Ġusapan": 5516,
      "Ġsuriin": 5517,
      "Ġpagbili": 5518,
      "Ġmadilim": 5519,
      "ĠNatural": 5520,
      "conom": 5521,
      "ĠÙ": 5522,
      "ask": 5523,
      "ĠBest": 5524,
      "Ġpagkah": 5525,
      "Ġgive": 5526,
      "Ġwater": 5527,
      "iyano": 5528,
      "ĠPC": 5529,
      "Ġpinagk": 5530,
      "Ġsupp": 5531,
      "PO": 5532,
      "ĠDa": 5533,
      "Ġpakikibaka": 5534,
      "Ġremedyong": 5535,
      "ric": 5536,
      "ahusay": 5537,
      "Ġthings": 5538,
      "ario": 5539,
      "intahan": 5540,
      "para": 5541,
      "Ġmem": 5542,
      "Ġpandaigdig": 5543,
      "Ġgayong": 5544,
      "Ġfilipino": 5545,
      "alingin": 5546,
      "ĠPagpap": 5547,
      "ized": 5548,
      "tang": 5549,
      "Ġnakad": 5550,
      "alakal": 5551,
      "Ġnakatuon": 5552,
      "Ð¾": 5553,
      "rel": 5554,
      "verage": 5555,
      "Ġdistr": 5556,
      "Ġlola": 5557,
      "rob": 5558,
      "ĠSir": 5559,
      "Ġdiffer": 5560,
      "ĠAgosto": 5561,
      "alahan": 5562,
      "Ġgreat": 5563,
      "Ġnatapos": 5564,
      "Ġkamakailan": 5565,
      "Ġacid": 5566,
      "rypto": 5567,
      "Mak": 5568,
      "Ġket": 5569,
      "ĠApr": 5570,
      "urch": 5571,
      "ĠHanggang": 5572,
      "Ġgabay": 5573,
      "abait": 5574,
      "Ġsour": 5575,
      "Ġsen": 5576,
      "ĠSc": 5577,
      "Ġimahe": 5578,
      "Ġmaglaro": 5579,
      "This": 5580,
      "Ġpalagay": 5581,
      "ahiya": 5582,
      "Ġapoy": 5583,
      "Ġnararapat": 5584,
      "mam": 5585,
      "ĠKay": 5586,
      "Ġpagkas": 5587,
      "Ġpuwedeng": 5588,
      "genic": 5589,
      "Re": 5590,
      "sabi": 5591,
      "Ġmiss": 5592,
      "Ġhah": 5593,
      "ĠPablo": 5594,
      "uhit": 5595,
      "Ġfull": 5596,
      "Ġavailable": 5597,
      "ĠDevelopment": 5598,
      "Ġmapanganib": 5599,
      "Ġpasah": 5600,
      "Ġkonsep": 5601,
      "Ġdemok": 5602,
      "tainment": 5603,
      "Ġsahod": 5604,
      "ler": 5605,
      "agandang": 5606,
      "uluhang": 5607,
      "ĠPapa": 5608,
      "Ġkasapi": 5609,
      "Ġnaghihintay": 5610,
      "Ġmarunong": 5611,
      "ane": 5612,
      "Um": 5613,
      "Ġaks": 5614,
      "andy": 5615,
      "ĠDel": 5616,
      "Ġmabawasan": 5617,
      "Ġbuo": 5618,
      "Ġpribadong": 5619,
      "\",": 5620,
      "Ġkasanayan": 5621,
      "Ġbanyo": 5622,
      "risis": 5623,
      "Ġbalikat": 5624,
      "ĠCam": 5625,
      "Ġalready": 5626,
      "ĠNagb": 5627,
      "And": 5628,
      "akin": 5629,
      "ĠBud": 5630,
      "Ġmatiyak": 5631,
      "Ġmarinig": 5632,
      "Ġseguridad": 5633,
      "ĠKast": 5634,
      "ension": 5635,
      "ĠDisyembre": 5636,
      "osito": 5637,
      "Ġnagpat": 5638,
      "dapat": 5639,
      "las": 5640,
      "Ġpitong": 5641,
      "Ġlear": 5642,
      "ĠSob": 5643,
      "erson": 5644,
      "Ġsining": 5645,
      "Ġmagsimula": 5646,
      "ĠProgr": 5647,
      "noy": 5648,
      "Ġtig": 5649,
      "Ġrest": 5650,
      "reso": 5651,
      "aganda": 5652,
      "Ġbun": 5653,
      "ĠMatapos": 5654,
      "ĠNar": 5655,
      "Ġpanatil": 5656,
      "Ġkakaibang": 5657,
      "Ġactiv": 5658,
      "ced": 5659,
      "Ġpagalingin": 5660,
      "ĠCr": 5661,
      "Ġmakaka": 5662,
      "Ġspe": 5663,
      "Ġpasok": 5664,
      "aari": 5665,
      "ĠSimb": 5666,
      "imo": 5667,
      "install": 5668,
      "ĠBreast": 5669,
      "Ġpagw": 5670,
      "imina": 5671,
      "ĠNab": 5672,
      "Ġtumingin": 5673,
      "ĠYour": 5674,
      "****": 5675,
      "Ġnagtatag": 5676,
      "Ġesp": 5677,
      "ktubre": 5678,
      "Ġplease": 5679,
      "iyempre": 5680,
      "ĠGe": 5681,
      "Ġhumah": 5682,
      "Ġkaunti": 5683,
      "ĠLiza": 5684,
      "ĠNagk": 5685,
      "Matapos": 5686,
      "pi": 5687,
      "umbas": 5688,
      "eksto": 5689,
      "Ġsong": 5690,
      "adem": 5691,
      "Ġpula": 5692,
      "arilyo": 5693,
      "ĠSing": 5694,
      "ando": 5695,
      "Ġ29": 5696,
      "Ġkahoy": 5697,
      "Ġhumih": 5698,
      "ĠIbarra": 5699,
      "Ġpiliin": 5700,
      "Ġsektor": 5701,
      "royo": 5702,
      "irit": 5703,
      "ĠLaw": 5704,
      "Ġtrip": 5705,
      "Ġkel": 5706,
      "ĠPinak": 5707,
      "Ġmatigas": 5708,
      "ilingkod": 5709,
      "INDI": 5710,
      "Ġabs": 5711,
      "ping": 5712,
      "ilik": 5713,
      "ĠNarito": 5714,
      "Ġyoung": 5715,
      "Ġpababa": 5716,
      "Ġkrit": 5717,
      "ĠHul": 5718,
      "ĠJess": 5719,
      "aste": 5720,
      "Ġpagpapa": 5721,
      "Ġmeet": 5722,
      "Ġapar": 5723,
      "Ġself": 5724,
      "Ġfound": 5725,
      "book": 5726,
      "Ġdigmaan": 5727,
      "Ġcat": 5728,
      "Ġcase": 5729,
      "Ġhalik": 5730,
      "Ġkaharian": 5731,
      "Ġtahimik": 5732,
      "45": 5733,
      "Bag": 5734,
      "py": 5735,
      "Ġpad": 5736,
      "ilio": 5737,
      "Ġlalabas": 5738,
      "Ġpari": 5739,
      "ĠOp": 5740,
      "cy": 5741,
      "ulas": 5742,
      "ender": 5743,
      "Ġnagsasabi": 5744,
      "Marami": 5745,
      "aron": 5746,
      "ĠBor": 5747,
      "ization": 5748,
      "Ġpapasok": 5749,
      "Ġbetter": 5750,
      "uation": 5751,
      "Ġbi": 5752,
      "Ġpinam": 5753,
      "Ġseries": 5754,
      "ysay": 5755,
      "Ġmonths": 5756,
      "nes": 5757,
      "Ġpanalo": 5758,
      "Ġnakakapag": 5759,
      "ision": 5760,
      "Ġinformation": 5761,
      "ĠAnton": 5762,
      "Ġimbest": 5763,
      "Ġnaninirahan": 5764,
      "ION": 5765,
      "Ġpip": 5766,
      "Ġlay": 5767,
      "iyong": 5768,
      "Ġstress": 5769,
      "ST": 5770,
      "Ġpes": 5771,
      "Ġtungo": 5772,
      "Ġbra": 5773,
      "Ġproper": 5774,
      "usahan": 5775,
      "pana": 5776,
      "Ġhahaha": 5777,
      "ĠNan": 5778,
      "ĠTop": 5779,
      "Ġmahaba": 5780,
      "Ġperform": 5781,
      "aster": 5782,
      "Ġev": 5783,
      "ĠMaric": 5784,
      "Ġmagpapadala": 5785,
      "eter": 5786,
      "Ġvirus": 5787,
      "Ġmatatanda": 5788,
      "ĠBago": 5789,
      "Ġpack": 5790,
      "Ġkumita": 5791,
      "Ġjob": 5792,
      "Ġtemp": 5793,
      "uparan": 5794,
      "Ġread": 5795,
      "anti": 5796,
      "Ġipinah": 5797,
      "Ġtagagawa": 5798,
      "Ġtamod": 5799,
      "Ġsundin": 5800,
      "Ġduring": 5801,
      "Ġmalamig": 5802,
      "Ġmade": 5803,
      "Ġopen": 5804,
      "Ġcellphone": 5805,
      "ktang": 5806,
      "Ġmustasa": 5807,
      "ĠManag": 5808,
      "Ġthird": 5809,
      "Ġvers": 5810,
      "Ġawit": 5811,
      "SE": 5812,
      "lon": 5813,
      "atibong": 5814,
      "ĠDum": 5815,
      "Ġ60": 5816,
      "100": 5817,
      "Ġ@": 5818,
      "Ġca": 5819,
      "ĠLag": 5820,
      "istory": 5821,
      "iao": 5822,
      "alitan": 5823,
      "agawang": 5824,
      "Ġbis": 5825,
      "Ġnakipag": 5826,
      "omb": 5827,
      "Ġdumi": 5828,
      "Ġboyfriend": 5829,
      "ĠInstagram": 5830,
      "Ġve": 5831,
      "ĠGer": 5832,
      "Ġtra": 5833,
      "Ġworker": 5834,
      "amanan": 5835,
      "Ġinaasahang": 5836,
      "Ġgusali": 5837,
      "Ġkitang": 5838,
      "Ġinstit": 5839,
      "ĠNaging": 5840,
      "reet": 5841,
      "ĠLove": 5842,
      "Ã®": 5843,
      "Ġprov": 5844,
      "ampas": 5845,
      "los": 5846,
      "ray": 5847,
      "wagan": 5848,
      "ĠIyong": 5849,
      "omenda": 5850,
      "ĠKanya": 5851,
      "mal": 5852,
      "Ġeksper": 5853,
      "Ġless": 5854,
      "abahagi": 5855,
      "Ġbudget": 5856,
      "ilikha": 5857,
      "ĠBon": 5858,
      "action": 5859,
      "Ġmalag": 5860,
      "ĠInc": 5861,
      "ements": 5862,
      "press": 5863,
      "awis": 5864,
      "Ġmakal": 5865,
      "aramihan": 5866,
      "Ġmedical": 5867,
      "Ġpagkakat": 5868,
      "Ġkinabukasan": 5869,
      "ĠMAG": 5870,
      "ĠJames": 5871,
      "Ġanuman": 5872,
      "ĠAustr": 5873,
      "ĠPedro": 5874,
      "Ġfun": 5875,
      "ĠHome": 5876,
      "Ġbumuo": 5877,
      "Ġprem": 5878,
      "Ġibinibigay": 5879,
      "ahulugang": 5880,
      "ĠGab": 5881,
      "Ġbraso": 5882,
      "yento": 5883,
      "Ġkawan": 5884,
      "Ġpagdiriwang": 5885,
      "Ġmahina": 5886,
      "Ġmean": 5887,
      "35": 5888,
      "Ġkani": 5889,
      "inisin": 5890,
      "Ġinterview": 5891,
      "tuloy": 5892,
      "Ġlow": 5893,
      "alia": 5894,
      "Ġbox": 5895,
      "Ġdekada": 5896,
      "60": 5897,
      "Ġmakapang": 5898,
      "alagaan": 5899,
      "gar": 5900,
      "awing": 5901,
      "ibot": 5902,
      "uta": 5903,
      "urance": 5904,
      "apatan": 5905,
      "indigan": 5906,
      "Ġmodelo": 5907,
      "ĠPaul": 5908,
      "Ġsaya": 5909,
      "ises": 5910,
      "ĠAL": 5911,
      "ĠNorth": 5912,
      "ĠCebu": 5913,
      "ĠHum": 5914,
      "hain": 5915,
      "Ġsamahan": 5916,
      "Ġtelesery": 5917,
      "ĠHunyo": 5918,
      "Ġ=": 5919,
      "Ġngipin": 5920,
      "ikl": 5921,
      "ĠOktubre": 5922,
      "ĠJoseph": 5923,
      "ned": 5924,
      "Ġcareer": 5925,
      "Ġmic": 5926,
      "ilalim": 5927,
      "osisyon": 5928,
      "ĠMO": 5929,
      "olekta": 5930,
      "ĠImp": 5931,
      "Mask": 5932,
      "ĠHalos": 5933,
      "ference": 5934,
      "Ġmateryales": 5935,
      "Ġer": 5936,
      "Ġsinuman": 5937,
      "Ġdirec": 5938,
      "rew": 5939,
      "Ġcome": 5940,
      "Ġartikulong": 5941,
      "Ġhaba": 5942,
      "ĠWorm": 5943,
      "hhhhhhhh": 5944,
      "99": 5945,
      "Ġlal": 5946,
      "Ġmain": 5947,
      "Ġgaanong": 5948,
      "ansya": 5949,
      "Ġcrusher": 5950,
      "Ġpanty": 5951,
      "rector": 5952,
      "Ġnguni": 5953,
      "ĠSouth": 5954,
      "Ġfan": 5955,
      "ĠWik": 5956,
      "Ġumaasa": 5957,
      "Ġkuryente": 5958,
      "Ġhanapin": 5959,
      "Ġtandaan": 5960,
      "ahahaha": 5961,
      "By": 5962,
      "ĠBa": 5963,
      "ugod": 5964,
      "Ġluha": 5965,
      "uhos": 5966,
      "ĠFilip": 5967,
      "Ġvol": 5968,
      "point": 5969,
      "ĠAbril": 5970,
      "angin": 5971,
      "Ġngiti": 5972,
      "ipid": 5973,
      "Ġiniwan": 5974,
      "Ġkahalagahan": 5975,
      "Ġdokumento": 5976,
      "Ib": 5977,
      "mar": 5978,
      "osyal": 5979,
      "een": 5980,
      "Ãł": 5981,
      "erna": 5982,
      "ubhang": 5983,
      "Ġbuild": 5984,
      "roseso": 5985,
      "oles": 5986,
      "ĠIII": 5987,
      "Com": 5988,
      "anim": 5989,
      "ĠTang": 5990,
      "Ġreaksyon": 5991,
      "iligaw": 5992,
      "Ġkapak": 5993,
      "Ġpagkakak": 5994,
      "Ġpabalik": 5995,
      "alagi": 5996,
      "ĠJe": 5997,
      "Ġpagtulog": 5998,
      "Ġlam": 5999,
      "âĢĺ": 6000,
      "Ġpamantayan": 6001,
      "ieve": 6002,
      "Ġpagganap": 6003,
      "Ġmagsalita": 6004,
      "Ġgames": 6005,
      "ebrero": 6006,
      "loy": 6007,
      "~~": 6008,
      "ĠDO": 6009,
      "Ġmagkasama": 6010,
      "Ġprogramang": 6011,
      "ĠRichard": 6012,
      "Ph": 6013,
      "Ġmapat": 6014,
      "uhayan": 6015,
      "acan": 6016,
      "ĠOne": 6017,
      "ĠHin": 6018,
      "SS": 6019,
      "Sum": 6020,
      "tulungan": 6021,
      "Ġnanalo": 6022,
      "ĠMor": 6023,
      "Ġkanang": 6024,
      "Ġmusika": 6025,
      "ander": 6026,
      "Ġbulaklak": 6027,
      "uce": 6028,
      "ume": 6029,
      "Ġkasamahan": 6030,
      "Ġplace": 6031,
      "ALA": 6032,
      "ayunman": 6033,
      "ernes": 6034,
      "Ġsigurado": 6035,
      "Ġmapagkukunan": 6036,
      "Ġkapalit": 6037,
      "Ġkalakal": 6038,
      "CH": 6039,
      "Ġugali": 6040,
      "Ġtema": 6041,
      "Ġgen": 6042,
      "Ġpagtatapos": 6043,
      "Ġkomunikasyon": 6044,
      "Ġessay": 6045,
      "Ġfinal": 6046,
      "ows": 6047,
      "Ġalisan": 6048,
      "Ġparasitiko": 6049,
      "alakasin": 6050,
      "set": 6051,
      "roup": 6052,
      "otos": 6053,
      "cia": 6054,
      "Ġprom": 6055,
      "ĠKastila": 6056,
      "Pat": 6057,
      "ngi": 6058,
      "ffee": 6059,
      "coin": 6060,
      "Ġmatukoy": 6061,
      "Ġdirektang": 6062,
      "erya": 6063,
      "Ġnatagpuan": 6064,
      "asaad": 6065,
      "Ġutong": 6066,
      "anang": 6067,
      "aly": 6068,
      "ahirap": 6069,
      "Ġmapanatili": 6070,
      "Ġmineral": 6071,
      "ota": 6072,
      "br": 6073,
      "fl": 6074,
      "nn": 6075,
      "risyon": 6076,
      "Ġbill": 6077,
      "Ġdiyos": 6078,
      "inaan": 6079,
      "ĠCat": 6080,
      "Ġtumit": 6081,
      "mmm": 6082,
      "Ġdomestic": 6083,
      "aliw": 6084,
      "ĠFirst": 6085,
      "ĠWeb": 6086,
      "Ġpanitikan": 6087,
      "Ġkagaya": 6088,
      "lis": 6089,
      "Ð¸": 6090,
      "Ġilong": 6091,
      "ĠBiblia": 6092,
      "Ġdist": 6093,
      "Ġevent": 6094,
      "iwalaan": 6095,
      "Ġrole": 6096,
      "Ġhinahanap": 6097,
      "Ġmommy": 6098,
      "Tr": 6099,
      "Ġbeauty": 6100,
      "apply": 6101,
      "Ġprinsip": 6102,
      "Ġspec": 6103,
      "Ġnegosy": 6104,
      "What": 6105,
      "bate": 6106,
      "ĠSM": 6107,
      "ukal": 6108,
      "Ġpinah": 6109,
      "Ġyog": 6110,
      "Ġpagpapas": 6111,
      "iyer": 6112,
      "ihis": 6113,
      "Ġkasunod": 6114,
      "Ġtuluyang": 6115,
      "Ġtumigil": 6116,
      "Ġreklamo": 6117,
      "DO": 6118,
      "sis": 6119,
      "Ġmama": 6120,
      "Ġmatulungan": 6121,
      "ĠGina": 6122,
      "Ġ2014": 6123,
      "ilitaw": 6124,
      "ble": 6125,
      "epe": 6126,
      "Ġpinip": 6127,
      "Ġopinyon": 6128,
      "ĠSil": 6129,
      "ĠJes": 6130,
      "Ġmabigyan": 6131,
      "Ġnaglal": 6132,
      "ĠIba": 6133,
      "ĠDavao": 6134,
      "Ġusapin": 6135,
      "Ġhamon": 6136,
      "ĠHulyo": 6137,
      "Ġulan": 6138,
      "ungang": 6139,
      "estival": 6140,
      "lain": 6141,
      "ĠNapak": 6142,
      "pet": 6143,
      "ahanga": 6144,
      "Ġcode": 6145,
      "Ġshare": 6146,
      "Ġsistemang": 6147,
      "unian": 6148,
      "Ġgel": 6149,
      "Ġkandid": 6150,
      "upong": 6151,
      "Ġkadalasang": 6152,
      "kita": 6153,
      "Ġtiwala": 6154,
      "awaran": 6155,
      "ĠLunes": 6156,
      "obal": 6157,
      "Ġdumaan": 6158,
      "Ġpampublikong": 6159,
      "As": 6160,
      "CC": 6161,
      "ĠKin": 6162,
      "ĠKatol": 6163,
      "Ġmillion": 6164,
      "ĠSur": 6165,
      "Ġkanser": 6166,
      "Ġeach": 6167,
      "Ġtour": 6168,
      "ĠChar": 6169,
      "ĠChief": 6170,
      "Ġnalalaman": 6171,
      "Ġdeb": 6172,
      "anada": 6173,
      "ĠTHE": 6174,
      "Ġnapa": 6175,
      "Ġstay": 6176,
      "Ġlabor": 6177,
      "Ġpagbabalik": 6178,
      "Ġsuc": 6179,
      "ides": 6180,
      "ubilin": 6181,
      "ihi": 6182,
      "plano": 6183,
      "ify": 6184,
      "Ġaway": 6185,
      "ibersidad": 6186,
      "Ġwithout": 6187,
      "pero": 6188,
      "Ġ..": 6189,
      "Ġtangg": 6190,
      "Ġcash": 6191,
      "iday": 6192,
      "Ġipat": 6193,
      "lax": 6194,
      "Ġikatlong": 6195,
      "Ġnagbab": 6196,
      "Ġpisngi": 6197,
      "ennis": 6198,
      "Ġpicture": 6199,
      "Ġisk": 6200,
      "eth": 6201,
      "untunan": 6202,
      "Ġacne": 6203,
      "embers": 6204,
      "Ġtinutukoy": 6205,
      "alino": 6206,
      "Ġpartner": 6207,
      "ĠUnang": 6208,
      "ĠUnited": 6209,
      "ĠThat": 6210,
      "not": 6211,
      "ĠBible": 6212,
      "ĠDes": 6213,
      "Ġnarito": 6214,
      "Ġsuch": 6215,
      "ĠBatang": 6216,
      "ĠKe": 6217,
      "ukulang": 6218,
      "acio": 6219,
      "ĠVideo": 6220,
      "Ġkayamanan": 6221,
      "ĠEh": 6222,
      "Ġitinak": 6223,
      "Ġkarne": 6224,
      "Ġblood": 6225,
      "Ġsampung": 6226,
      "Ġnangg": 6227,
      "ĠUna": 6228,
      "ruit": 6229,
      "andar": 6230,
      "ĠTwitter": 6231,
      "Ġpharm": 6232,
      "dong": 6233,
      "Ġdahon": 6234,
      "road": 6235,
      "Ġipinat": 6236,
      "ĠUk": 6237,
      "ĠMaging": 6238,
      "ĠDirector": 6239,
      "ĠBlack": 6240,
      "Ġbirthday": 6241,
      "urong": 6242,
      "Ġyaman": 6243,
      "anggunian": 6244,
      "Ġtagap": 6245,
      "ĠYork": 6246,
      "Ġgrad": 6247,
      "ĠLibreng": 6248,
      "Ġpagkamatay": 6249,
      "Ġvari": 6250,
      "Ã±o": 6251,
      "Ġketogenic": 6252,
      "Ġdakilang": 6253,
      "ĠPeters": 6254,
      "Bago": 6255,
      "wala": 6256,
      "isay": 6257,
      "iyal": 6258,
      "Ġkaligay": 6259,
      "Ġpaglabag": 6260,
      "langan": 6261,
      "Ġkasamaan": 6262,
      "Ġsimbolo": 6263,
      "sp": 6264,
      "ĠLoc": 6265,
      "Ġ2008": 6266,
      "Ġtarget": 6267,
      "Pin": 6268,
      "Ġlalam": 6269,
      "ahing": 6270,
      "ĠHar": 6271,
      "ebisyon": 6272,
      "Ġcomments": 6273,
      "Ġpapa": 6274,
      "Ġelemento": 6275,
      "Ġsenador": 6276,
      "ĠDom": 6277,
      "Ġkasamang": 6278,
      "vey": 6279,
      "Ġipinakita": 6280,
      "Ġmodernong": 6281,
      "AA": 6282,
      "Ġshampoo": 6283,
      "umpleto": 6284,
      "Ġbilog": 6285,
      "vision": 6286,
      "Ġpagtanggap": 6287,
      "hank": 6288,
      "Ġpiraso": 6289,
      "light": 6290,
      "Ġdiwa": 6291,
      "Ġibalik": 6292,
      "Ġsinaunang": 6293,
      "Ġtuk": 6294,
      "awanan": 6295,
      "Ġchat": 6296,
      "ILA": 6297,
      "Ġsadyang": 6298,
      "Ilang": 6299,
      "bah": 6300,
      "esta": 6301,
      "Ġflo": 6302,
      "Ġmalalaman": 6303,
      "ĠParas": 6304,
      "Dapat": 6305,
      "atol": 6306,
      "Ġhope": 6307,
      "ĠPers": 6308,
      "Ġtulog": 6309,
      "Ġactress": 6310,
      "roll": 6311,
      "Mad": 6312,
      "ury": 6313,
      "entuhan": 6314,
      "ĠVi": 6315,
      "Ġcontin": 6316,
      "Ġub": 6317,
      "Ġpader": 6318,
      "ĠSiguro": 6319,
      "Ġrun": 6320,
      "Ġmaintindihan": 6321,
      "sang": 6322,
      "Ġkul": 6323,
      "awalang": 6324,
      "ĠSinas": 6325,
      "ĠCap": 6326,
      "Ġpagtingin": 6327,
      "33": 6328,
      "Ġpulang": 6329,
      "otal": 6330,
      "ĠCour": 6331,
      "ĠAnong": 6332,
      "Ġmurang": 6333,
      "Ġminam": 6334,
      "Ġport": 6335,
      "isode": 6336,
      "ĠPamb": 6337,
      "Ġgot": 6338,
      "abaan": 6339,
      "Ġpinagh": 6340,
      "ulture": 6341,
      "uyas": 6342,
      "Ġnagsasalita": 6343,
      "Ġcommunity": 6344,
      "Ġpintuan": 6345,
      "Ġwatch": 6346,
      "Ġmatugunan": 6347,
      "ulatan": 6348,
      "Ġkatapusan": 6349,
      "dro": 6350,
      "Ġbenef": 6351,
      "ĠMakat": 6352,
      "reh": 6353,
      "Ġakda": 6354,
      "ĠOl": 6355,
      "ĠThey": 6356,
      "Ġpopulasyon": 6357,
      "put": 6358,
      "ayuan": 6359,
      "ĠNas": 6360,
      "ĠJac": 6361,
      "amangha": 6362,
      "Ġlumipat": 6363,
      "Ġeksak": 6364,
      "ĠSetyembre": 6365,
      "Ġyogurt": 6366,
      "ĠPetersburg": 6367,
      "analo": 6368,
      "ĠLim": 6369,
      "Ġcancer": 6370,
      "Sub": 6371,
      "ĠCong": 6372,
      "Ġlead": 6373,
      "Ġtalent": 6374,
      "Ġdalag": 6375,
      "ĠPort": 6376,
      "ĠPebrero": 6377,
      "ĠUN": 6378,
      "Ġpaglikha": 6379,
      "Ġround": 6380,
      "Ġpantay": 6381,
      "ekl": 6382,
      "abasan": 6383,
      "Ġpanun": 6384,
      "ring": 6385,
      "Ġpusa": 6386,
      "Ġkana": 6387,
      "andal": 6388,
      "oli": 6389,
      "ĠKam": 6390,
      "ĠRE": 6391,
      "hanang": 6392,
      "Ġcontact": 6393,
      "Ġkoleh": 6394,
      "anch": 6395,
      "Ġdigital": 6396,
      "ocus": 6397,
      "mail": 6398,
      "Ġresult": 6399,
      "Ġext": 6400,
      "ĠSanto": 6401,
      "arungan": 6402,
      "umano": 6403,
      "eldo": 6404,
      "ries": 6405,
      "Ġnagmum": 6406,
      "ĠAmerican": 6407,
      "Yung": 6408,
      "Ġkid": 6409,
      "Ġnagulat": 6410,
      "ĠWar": 6411,
      "RT": 6412,
      "angal": 6413,
      "gamot": 6414,
      "ĠCH": 6415,
      "Ġpagbib": 6416,
      "Ġused": 6417,
      "Ġkrimen": 6418,
      "Ġjuice": 6419,
      "Ġpaglabas": 6420,
      "tee": 6421,
      "iginal": 6422,
      "Ġthree": 6423,
      "ĠBu": 6424,
      "erst": 6425,
      "Ġsumali": 6426,
      "Ġpinakamataas": 6427,
      "Ġmawawala": 6428,
      "ungg": 6429,
      "room": 6430,
      "Ġchannel": 6431,
      "Ġkomento": 6432,
      "ĠNobyembre": 6433,
      "Ġsap": 6434,
      "Ġho": 6435,
      "ugtong": 6436,
      "Ġlumaki": 6437,
      "Ġinsidente": 6438,
      "ĠMarian": 6439,
      "vincial": 6440,
      "ĠSabado": 6441,
      "iliw": 6442,
      "unaw": 6443,
      "Ġpagsunod": 6444,
      "oco": 6445,
      "ultural": 6446,
      "PH": 6447,
      "salita": 6448,
      "Ġphy": 6449,
      "ops": 6450,
      "Ġbawang": 6451,
      "Ġnawalan": 6452,
      "Ġmanager": 6453,
      "Ġcamera": 6454,
      "Ġkesa": 6455,
      "ayayat": 6456,
      "Ġlayo": 6457,
      "Ġpare": 6458,
      "Ġnatanggap": 6459,
      "Ġspam": 6460,
      "Ġinilabas": 6461,
      "88": 6462,
      "CO": 6463,
      "YO": 6464,
      "ky": 6465,
      "sak": 6466,
      "rea": 6467,
      "panyol": 6468,
      "ĠMom": 6469,
      "Ġfire": 6470,
      "traktura": 6471,
      "Ġkumakain": 6472,
      "Ġ2021": 6473,
      "Ġlokasyon": 6474,
      "Ġgayundin": 6475,
      "Ġtype": 6476,
      "Ġporn": 6477,
      "gado": 6478,
      "tomat": 6479,
      "Ġmagtrabaho": 6480,
      "yone": 6481,
      "Ġmau": 6482,
      "alagyan": 6483,
      "resh": 6484,
      "Ġhehe": 6485,
      "Ġpresident": 6486,
      "ilosop": 6487,
      "Ġitinatag": 6488,
      "Ġpasahero": 6489,
      "apekt": 6490,
      "Ġhap": 6491,
      "Ġmagpat": 6492,
      "undong": 6493,
      "isipl": 6494,
      "daang": 6495,
      "Ġelectr": 6496,
      "eptember": 6497,
      "Ø§ÙĦ": 6498,
      "Ex": 6499,
      "Ġibinab": 6500,
      "Ġpagsasama": 6501,
      "Ġpagmam": 6502,
      "asiwa": 6503,
      "Ġhangg": 6504,
      "ĠBay": 6505,
      "Ġpapaano": 6506,
      "inahagi": 6507,
      "Ġplayer": 6508,
      "Ġtinanong": 6509,
      "Ġalter": 6510,
      "Ġmasyado": 6511,
      "Ġburdock": 6512,
      "Ġpotensyal": 6513,
      "Ġmanatili": 6514,
      "Pro": 6515,
      "abihan": 6516,
      "ĠBab": 6517,
      "Ġkautusan": 6518,
      "Ġdayuhan": 6519,
      "Sana": 6520,
      "part": 6521,
      "Ġsunod": 6522,
      "Ġhom": 6523,
      "Ġnagaganap": 6524,
      "Ġnagsimulang": 6525,
      "Ġpupunta": 6526,
      "Ġcharacter": 6527,
      "inin": 6528,
      "ĠSm": 6529,
      "Ġmall": 6530,
      "Ġtablets": 6531,
      "Ġsetting": 6532,
      "ĠAssoci": 6533,
      "Ġkonsepto": 6534,
      "ĠAnn": 6535,
      "alatang": 6536,
      "Ġsahig": 6537,
      "oster": 6538,
      "Ġpositibong": 6539,
      "Ġrebolusyonaryong": 6540,
      "ĠProgram": 6541,
      "ÙĨ": 6542,
      "anes": 6543,
      "Ġaksyon": 6544,
      "Ġibibigay": 6545,
      "Ġsinabing": 6546,
      "Ġkumik": 6547,
      "Ġsinis": 6548,
      "atakbo": 6549,
      "ĠIglesia": 6550,
      "ĠRodrigo": 6551,
      "dal": 6552,
      "usina": 6553,
      "Ġmatuwid": 6554,
      "Ġdinala": 6555,
      "Ġpandaigdigang": 6556,
      "Una": 6557,
      "rong": 6558,
      "uyong": 6559,
      "die": 6560,
      "ĠCast": 6561,
      "ĠTur": 6562,
      "Ġkalahati": 6563,
      "Ġweight": 6564,
      "MP": 6565,
      "Ġfit": 6566,
      "Ġkatumbas": 6567,
      "Ġaround": 6568,
      "Ġsumagot": 6569,
      "Ġabo": 6570,
      "Ġinterest": 6571,
      "Ġhotel": 6572,
      "Ġmind": 6573,
      "Ġpalakasin": 6574,
      "Ġkala": 6575,
      "itnang": 6576,
      "Ġtro": 6577,
      "iwalang": 6578,
      "Ġhumantong": 6579,
      "Ġproteksyon": 6580,
      "Ġputi": 6581,
      "Ġgoing": 6582,
      "Ġbaril": 6583,
      "Ġlubhang": 6584,
      "Ġmessage": 6585,
      "Ġtechn": 6586,
      "Ġnipp": 6587,
      "Ġlat": 6588,
      "Ġinirerek": 6589,
      "Ġmakabagong": 6590,
      "ĠPagt": 6591,
      "Ġhehehe": 6592,
      "Ġbuwis": 6593,
      "ĠReyes": 6594,
      "ecutive": 6595,
      "ÑĤ": 6596,
      "ÙĬ": 6597,
      "Ġpu": 6598,
      "ulutan": 6599,
      "Ġmainam": 6600,
      "Ġswim": 6601,
      "ĠKristiyano": 6602,
      "Kin": 6603,
      "Narito": 6604,
      "ibe": 6605,
      "ĠLalo": 6606,
      "Ġcourse": 6607,
      "avel": 6608,
      "Ġleast": 6609,
      "Ġrelation": 6610,
      "Ġkadal": 6611,
      "yy": 6612,
      "Ġkaraming": 6613,
      "Ġdako": 6614,
      "Ġhener": 6615,
      "ession": 6616,
      "ĠOf": 6617,
      "Lahat": 6618,
      "inic": 6619,
      "Ġther": 6620,
      "Ġiisang": 6621,
      "Ġnaririnig": 6622,
      "ĠAsya": 6623,
      "Ġimm": 6624,
      "Ġkadahilanan": 6625,
      "Ġkaligayahan": 6626,
      "Ġemb": 6627,
      "Ġseks": 6628,
      "ĠPamp": 6629,
      "upunta": 6630,
      "ĠHel": 6631,
      "trate": 6632,
      "Ġtumawag": 6633,
      "Ġtanggapan": 6634,
      "Tulad": 6635,
      "fac": 6636,
      "list": 6637,
      "itch": 6638,
      "ently": 6639,
      "Ġpinab": 6640,
      "Ġnagmam": 6641,
      "Ġlingkod": 6642,
      "Ġago": 6643,
      "ahimik": 6644,
      "ĠNakat": 6645,
      "ĠNakita": 6646,
      "insunod": 6647,
      "Ġtatak": 6648,
      "Ġibat": 6649,
      "comm": 6650,
      "Ġrecord": 6651,
      "ĠEuropa": 6652,
      "ĠUrban": 6653,
      "ĠIyon": 6654,
      "ĠFilm": 6655,
      "ource": 6656,
      "Ġboard": 6657,
      "oderil": 6658,
      "alahanin": 6659,
      "agana": 6660,
      "Ġkind": 6661,
      "Ġtalam": 6662,
      "Ġcity": 6663,
      "alikod": 6664,
      "Ġsuliran": 6665,
      "apektuhan": 6666,
      "ining": 6667,
      "Ġbasa": 6668,
      "olar": 6669,
      "Ġbrand": 6670,
      "Ġgirlfriend": 6671,
      "Ġmedikal": 6672,
      "cent": 6673,
      "zoderil": 6674,
      "ĠBong": 6675,
      "Ġpangg": 6676,
      "Ġtumutukoy": 6677,
      "agamot": 6678,
      "ibilangan": 6679,
      "dian": 6680,
      "opy": 6681,
      "Ġtrue": 6682,
      "Ġhalalan": 6683,
      "Ġnapakaraming": 6684,
      "Ġpagpapatupad": 6685,
      "oscow": 6686,
      "papat": 6687,
      "raine": 6688,
      "ĠArroyo": 6689,
      "ornia": 6690,
      "Ġsource": 6691,
      "fo": 6692,
      "ona": 6693,
      "Ġline": 6694,
      "Ġipinagb": 6695,
      "Ġmala": 6696,
      "Ġinis": 6697,
      "Ġsundalo": 6698,
      "Ġhaha": 6699,
      "Ġayusin": 6700,
      "Ġkaisipan": 6701,
      "Ġdumad": 6702,
      "Ġpagmimina": 6703,
      "Ġdatos": 6704,
      "ering": 6705,
      "Ġporsyento": 6706,
      "ares": 6707,
      "Ġtamb": 6708,
      "unungan": 6709,
      "Ġmasayang": 6710,
      "Ġmakahanap": 6711,
      "epend": 6712,
      "Ġkalim": 6713,
      "Ġkolehiyo": 6714,
      "anah": 6715,
      "awaan": 6716,
      "Ġkampanya": 6717,
      "Ġpagkakamali": 6718,
      "Ġexam": 6719,
      "inalikan": 6720,
      "yayaring": 6721,
      "abawal": 6722,
      "St": 6723,
      "uage": 6724,
      "Ġmaagang": 6725,
      "anakan": 6726,
      "Ġbigas": 6727,
      "Ġtinapay": 6728,
      "uary": 6729,
      "Ġtubo": 6730,
      "Ġmister": 6731,
      "Ġprofile": 6732,
      "Ġsearch": 6733,
      "Ġkeep": 6734,
      "ĠLG": 6735,
      "kum": 6736,
      "áĢ": 6737,
      "Ġtanda": 6738,
      "ification": 6739,
      "Ġpaper": 6740,
      "Ġkasangkapan": 6741,
      "31": 6742,
      "TR": 6743,
      "mittee": 6744,
      "Ġsign": 6745,
      "ĠKorea": 6746,
      "Ġpind": 6747,
      "Ġmax": 6748,
      "Ġansw": 6749,
      "Ġkilos": 6750,
      "osong": 6751,
      "Ġgutom": 6752,
      "Ġinu": 6753,
      "Ġtaglay": 6754,
      "ĠLuzon": 6755,
      "dis": 6756,
      "Ġsugat": 6757,
      "Ġsigaw": 6758,
      "mpanan": 6759,
      "Ġnatutunan": 6760,
      "CE": 6761,
      "iang": 6762,
      "isda": 6763,
      "ĠCan": 6764,
      "ĠTao": 6765,
      "Ġtagas": 6766,
      "Ġtinanggap": 6767,
      "Ġbayani": 6768,
      "Ġmakabuluhang": 6769,
      "________": 6770,
      "Ġpulitika": 6771,
      "Bum": 6772,
      "PS": 6773,
      "ilbi": 6774,
      "Ġlinisin": 6775,
      "utes": 6776,
      "Ġaktibong": 6777,
      "ĠID": 6778,
      "arehistro": 6779,
      "Ġnangangahulugang": 6780,
      "Ġmetal": 6781,
      "ĠFernan": 6782,
      "ĠKing": 6783,
      "ĠJake": 6784,
      "Ġchange": 6785,
      "Ġsanang": 6786,
      "Ġpulisya": 6787,
      "kaya": 6788,
      "ners": 6789,
      "ared": 6790,
      "ishing": 6791,
      "ĠWith": 6792,
      "naliksik": 6793,
      "ilanlan": 6794,
      "Ġpanlabas": 6795,
      "ðĿļ": 6796,
      "Ġpangkalahatan": 6797,
      "Ġpanayam": 6798,
      "alifornia": 6799,
      "Ġhour": 6800,
      "Ġnagw": 6801,
      "Ġkagustuhan": 6802,
      "Ġimpluw": 6803,
      "UE": 6804,
      "ella": 6805,
      "iram": 6806,
      "Ġresearch": 6807,
      "ĠMartin": 6808,
      "Ġnangungunang": 6809,
      "ĠMs": 6810,
      "ipiko": 6811,
      "ensive": 6812,
      "80": 6813,
      "ease": 6814,
      "Ð½": 6815,
      "Ġkim": 6816,
      "reto": 6817,
      "Ġcost": 6818,
      "Ġmaari": 6819,
      "Ġmaingat": 6820,
      "Ġkasunduan": 6821,
      "ĠAnti": 6822,
      "Ġregalo": 6823,
      "nasa": 6824,
      "Ġhind": 6825,
      "Ġhiwalay": 6826,
      "ĠGood": 6827,
      "ĠJuly": 6828,
      "Ġthing": 6829,
      "paputi": 6830,
      "aliz": 6831,
      "Ġpaglipas": 6832,
      "Ġmaghanap": 6833,
      "Ġcelebr": 6834,
      "down": 6835,
      "onz": 6836,
      "ikt": 6837,
      "Ġmaliwanag": 6838,
      "essional": 6839,
      "egal": 6840,
      "Ġmangayayat": 6841,
      "Ġeditor": 6842,
      "FA": 6843,
      "Ġhalagang": 6844,
      "Ġwall": 6845,
      "Ġcosmet": 6846,
      "ĠBob": 6847,
      "Ġpagkilala": 6848,
      "ĠGroup": 6849,
      "Ġbagyo": 6850,
      "Ġnasabi": 6851,
      "OD": 6852,
      "Ġnasus": 6853,
      "Ġespiritu": 6854,
      "Ġtakip": 6855,
      "ĠAgu": 6856,
      "500": 6857,
      "ĠMahal": 6858,
      "agdating": 6859,
      "Ġ31": 6860,
      "Ġhuman": 6861,
      "90": 6862,
      "Ġsuw": 6863,
      "iles": 6864,
      "Ġdiba": 6865,
      "Ġhar": 6866,
      "ĠII": 6867,
      "Ġreading": 6868,
      "Ġkumilos": 6869,
      "Ġmanana": 6870,
      "AMI": 6871,
      "BI": 6872,
      "pansin": 6873,
      "Ġfec": 6874,
      "Ġmabigat": 6875,
      "Ġposs": 6876,
      "inagd": 6877,
      "Ġtea": 6878,
      "Ġsyempre": 6879,
      "Ġlarong": 6880,
      "ercise": 6881,
      "cel": 6882,
      "Ġsweet": 6883,
      "Ġdam": 6884,
      "ĠMoscow": 6885,
      "ureau": 6886,
      "Ġnaglalaro": 6887,
      "ĠDaniel": 6888,
      "ev": 6889,
      "Ġnaunang": 6890,
      "ational": 6891,
      "iyente": 6892,
      "Ġgub": 6893,
      "ĠRyan": 6894,
      "ĠMarch": 6895,
      "Ġrehim": 6896,
      "ĠSun": 6897,
      "uruan": 6898,
      "ucas": 6899,
      "Ġnakasulat": 6900,
      "TH": 6901,
      "pris": 6902,
      "Ġpinsan": 6903,
      "issa": 6904,
      "imbak": 6905,
      "Ġnoo": 6906,
      "ARA": 6907,
      "banghel": 6908,
      "Ġ90": 6909,
      "EA": 6910,
      "Ina": 6911,
      "mad": 6912,
      "Ġcer": 6913,
      "Ġkamalayan": 6914,
      "Ġkahih": 6915,
      "ected": 6916,
      "Ġkontra": 6917,
      "Ġlibong": 6918,
      "Ġklin": 6919,
      "ĠBrgy": 6920,
      "Ġteleserye": 6921,
      "uugali": 6922,
      "itiz": 6923,
      "Ġaspeto": 6924,
      "alanin": 6925,
      "Ġpaglul": 6926,
      "Ġmangang": 6927,
      "Ġbless": 6928,
      "Ã±a": 6929,
      "Ġkinabibilangan": 6930,
      "KS": 6931,
      "Ġkrisis": 6932,
      "illo": 6933,
      "Ġnakasal": 6934,
      "Ġpanga": 6935,
      "Ġtumanggap": 6936,
      "Ġtelebisyon": 6937,
      "worm": 6938,
      "Ġmura": 6939,
      "Ġsaloob": 6940,
      "Ġcrypto": 6941,
      "Ġpanloob": 6942,
      "Ġtagubilin": 6943,
      "Ġpasasalamat": 6944,
      "inition": 6945,
      "ĠRead": 6946,
      "Ġyaong": 6947,
      "Ġdalagita": 6948,
      "tapos": 6949,
      "ikas": 6950,
      "tober": 6951,
      "anding": 6952,
      "Ġibon": 6953,
      "araniwan": 6954,
      "Ġlikuran": 6955,
      "Ġtransport": 6956,
      "CR": 6957,
      "luran": 6958,
      "agn": 6959,
      "uly": 6960,
      "Ġisla": 6961,
      "Ġpagbebenta": 6962,
      "Ġjeep": 6963,
      "Ġenjoy": 6964,
      "Ġpamumuno": 6965,
      "ĠKongreso": 6966,
      "Ġperpektong": 6967,
      "ĠBiyernes": 6968,
      "siyon": 6969,
      "Ġfund": 6970,
      "uba": 6971,
      "ĠGay": 6972,
      "ĠCasino": 6973,
      "Ġkalinga": 6974,
      "Ġmapabuti": 6975,
      "Ġdevice": 6976,
      "UB": 6977,
      "ĠAY": 6978,
      "ention": 6979,
      "Ġmatuto": 6980,
      "kanilang": 6981,
      "Ġnauugnay": 6982,
      "ĠEurope": 6983,
      "Ġinspirasyon": 6984,
      "Ġnegosyante": 6985,
      "Ġhenerasyon": 6986,
      "hati": 6987,
      "ĠBat": 6988,
      "Ġpanib": 6989,
      "Ġsalamin": 6990,
      "Ġdisc": 6991,
      "Ġnakaupo": 6992,
      "Ġclose": 6993,
      "jack": 6994,
      "Ġstop": 6995,
      "ĠMedyo": 6996,
      "uwiran": 6997,
      "Ġnakatayo": 6998,
      "Ġpigmented": 6999,
      "Ġahensya": 7000,
      "Dagdag": 7001,
      "bik": 7002,
      "Ġdy": 7003,
      "uture": 7004,
      "Ġyong": 7005,
      "Ġbakuna": 7006,
      "Ġmembers": 7007,
      "Ġequ": 7008,
      "Ġjan": 7009,
      "band": 7010,
      "cast": 7011,
      "erve": 7012,
      "ikadong": 7013,
      "Ġwalong": 7014,
      "ĠGerald": 7015,
      "ĠRel": 7016,
      "Ġkalakalan": 7017,
      "mint": 7018,
      "now": 7019,
      "ilitan": 7020,
      "akter": 7021,
      "ĠSocial": 7022,
      "Ġmalambot": 7023,
      "Ġginanap": 7024,
      "Ġpiso": 7025,
      "athala": 7026,
      "Ġisinulat": 7027,
      "Ġbintana": 7028,
      "Ġaplikasyon": 7029,
      "MM": 7030,
      "Sino": 7031,
      "kus": 7032,
      "rik": 7033,
      "ĠDiv": 7034,
      "Ġipinal": 7035,
      "impl": 7036,
      "Ġwhitening": 7037,
      "Ġmusic": 7038,
      "hop": 7039,
      "Ġmamah": 7040,
      "unsod": 7041,
      "Ġibahagi": 7042,
      "ĠOil": 7043,
      "Ġmahanap": 7044,
      "tors": 7045,
      "Ġespirit": 7046,
      "Ġrebolusyon": 7047,
      "Ġpanatilihin": 7048,
      "Ġaparato": 7049,
      "uf": 7050,
      "Ġtell": 7051,
      "Ġbalang": 7052,
      "ĠAh": 7053,
      "Ġasin": 7054,
      "Ġtumakbo": 7055,
      "board": 7056,
      "Ġbasket": 7057,
      "Ġsapatos": 7058,
      "hairman": 7059,
      "ison": 7060,
      "ĠBureau": 7061,
      "Ġmagsanay": 7062,
      "ĠPasko": 7063,
      "Ġpinagmulan": 7064,
      "yas": 7065,
      "ality": 7066,
      "ĠPinas": 7067,
      "Ġsumis": 7068,
      "ĠÂ·": 7069,
      "apitan": 7070,
      "igang": 7071,
      "ataang": 7072,
      "Ġstaff": 7073,
      "bihan": 7074,
      "Ġkant": 7075,
      "Ġmatibay": 7076,
      "alakan": 7077,
      "Ġbasura": 7078,
      "loria": 7079,
      "ĠKami": 7080,
      "iham": 7081,
      "until": 7082,
      "isyonal": 7083,
      "ĠSupre": 7084,
      "Ġkontrata": 7085,
      "abetes": 7086,
      "bid": 7087,
      "Ġdalaw": 7088,
      "ugot": 7089,
      "epek": 7090,
      "ĠMadalas": 7091,
      "esp": 7092,
      "ĠCrist": 7093,
      "Salamat": 7094,
      "Ġkey": 7095,
      "ĠBur": 7096,
      "ĠJune": 7097,
      "Bas": 7098,
      "bie": 7099,
      "Ġpiling": 7100,
      "umer": 7101,
      "ĠAsia": 7102,
      "Ġ2007": 7103,
      "ĠOrgan": 7104,
      "ĠIndones": 7105,
      "legal": 7106,
      "over": 7107,
      "zar": 7108,
      "Ġker": 7109,
      "Ġhinawakan": 7110,
      "ĠSta": 7111,
      "ĠIlo": 7112,
      "ĠDar": 7113,
      "Ġpaglal": 7114,
      "Ġtakbo": 7115,
      "Ġbinat": 7116,
      "Ġboto": 7117,
      "acher": 7118,
      "Nab": 7119,
      "wiran": 7120,
      "Ġsoda": 7121,
      "Ġlis": 7122,
      "ĠSalita": 7123,
      "ulaan": 7124,
      "ĠGil": 7125,
      "Ġupuan": 7126,
      "Ġbakal": 7127,
      "Ġagainst": 7128,
      "Ġkasintahan": 7129,
      "Ġasukal": 7130,
      "...\"": 7131,
      "Ġcompl": 7132,
      "ports": 7133,
      "ĠSamakatuwid": 7134,
      "Ġsaloobin": 7135,
      "Nasa": 7136,
      "Ġtigas": 7137,
      "ipit": 7138,
      "ĠKA": 7139,
      "AHAH": 7140,
      "ĠKailanma": 7141,
      "Ġsu": 7142,
      "Ġkahil": 7143,
      "umite": 7144,
      "ungat": 7145,
      "ĠMig": 7146,
      "ĠSaudi": 7147,
      "Ġmabub": 7148,
      "Ġkumak": 7149,
      "Ġnagkakahalaga": 7150,
      "Ġpagsasa": 7151,
      "arehong": 7152,
      "avite": 7153,
      "Ġhininga": 7154,
      "Ġsingle": 7155,
      "Ġkabutihan": 7156,
      "Ġmisyon": 7157,
      "atake": 7158,
      "Ġbawa": 7159,
      "Ġayos": 7160,
      "uma": 7161,
      "Ġinilagay": 7162,
      "ij": 7163,
      "tit": 7164,
      "apore": 7165,
      "ĠMap": 7166,
      "Ġcredit": 7167,
      "ĠHINDI": 7168,
      "mote": 7169,
      "ween": 7170,
      "Ġrepresent": 7171,
      "Ġsibuyas": 7172,
      "Ġdifferent": 7173,
      "zer": 7174,
      "angiti": 7175,
      "itim": 7176,
      "ĠAga": 7177,
      "ĠId": 7178,
      "Ġkauna": 7179,
      "Ġ35": 7180,
      "âĢ¦âĢ¦": 7181,
      "Ġapartment": 7182,
      "UG": 7183,
      "tso": 7184,
      "atis": 7185,
      "ĠSci": 7186,
      "hael": 7187,
      "ifacio": 7188,
      "mmmm": 7189,
      "alleng": 7190,
      "adh": 7191,
      "Ġgreen": 7192,
      "ĠFre": 7193,
      "Ġmanonood": 7194,
      "Ġkumakat": 7195,
      "Ġmode": 7196,
      "ĠFrancisco": 7197,
      "aah": 7198,
      "orge": 7199,
      "adya": 7200,
      "olina": 7201,
      "ĠTreat": 7202,
      "Ġmatulog": 7203,
      "Ġpagpapabata": 7204,
      "ĠInt": 7205,
      "bert": 7206,
      "iod": 7207,
      "mn": 7208,
      "inala": 7209,
      "ĠPi": 7210,
      "Ġgrow": 7211,
      "eline": 7212,
      "Ġmakakapag": 7213,
      "ĠPartido": 7214,
      "esnush": 7215,
      "==": 7216,
      "Me": 7217,
      "Tube": 7218,
      "mi": 7219,
      "pin": 7220,
      "sas": 7221,
      "Ġboth": 7222,
      "Ġanother": 7223,
      "rotektahan": 7224,
      "Ġbusy": 7225,
      "Ġipinanganak": 7226,
      "Ġpesos": 7227,
      "Pinag": 7228,
      "onic": 7229,
      "ĠStory": 7230,
      "Ġfinan": 7231,
      "Ġramdam": 7232,
      "Ġmakukuha": 7233,
      "taur": 7234,
      "Ġpanalangin": 7235,
      "ancer": 7236,
      "Ġekzoderil": 7237,
      "Ġsecurity": 7238,
      "ĠMaricar": 7239,
      "Ġpagkakakilanlan": 7240,
      "Ġmart": 7241,
      "Ġpagbabasa": 7242,
      "Ġmamimili": 7243,
      "lastname": 7244,
      "Ùħ": 7245,
      "Ġmesa": 7246,
      "aril": 7247,
      "Ġtuntunin": 7248,
      "umi": 7249,
      "ĠHol": 7250,
      "uble": 7251,
      "ĠLungsod": 7252,
      "Ġkompanya": 7253,
      "Ġsexy": 7254,
      "Ġetc": 7255,
      "Ġpatungkol": 7256,
      "Ġkarakter": 7257,
      "Ġnagpa": 7258,
      "wag": 7259,
      "ĠPA": 7260,
      "Ġdiumano": 7261,
      "ĠUp": 7262,
      "Ġpagtatang": 7263,
      "FF": 7264,
      "TA": 7265,
      "bn": 7266,
      "ĠTingnan": 7267,
      "ĠHuman": 7268,
      "Ġmahulog": 7269,
      "Ġkarang": 7270,
      "Ġnabasa": 7271,
      "Ġbituin": 7272,
      "Ġbibigyan": 7273,
      "Ġmotor": 7274,
      "36": 7275,
      "dle": 7276,
      "ayaman": 7277,
      "ĠAward": 7278,
      "Ġfoot": 7279,
      "ĠBac": 7280,
      "ĠKabilang": 7281,
      "Ġitem": 7282,
      "Ġpagpatay": 7283,
      "Ġbaboy": 7284,
      "eas": 7285,
      "uu": 7286,
      "Ġdireksyon": 7287,
      "Ġkaramdaman": 7288,
      "Ġsuk": 7289,
      "Ġthesis": 7290,
      "ĠCla": 7291,
      "ĠGen": 7292,
      "Ġtumatagal": 7293,
      "Ġalamin": 7294,
      "Ġlamb": 7295,
      "ĠNAG": 7296,
      "iwanan": 7297,
      "ĠJoel": 7298,
      "Ġpamahalaang": 7299,
      "Ġkapitbahay": 7300,
      "Ġadministrasyon": 7301,
      "Ġimbestigasyon": 7302,
      "Ġkawani": 7303,
      "Ġword": 7304,
      "ĠMasbate": 7305,
      "ured": 7306,
      "ĠPhil": 7307,
      "Ġcrush": 7308,
      "ologist": 7309,
      "ĠBulacan": 7310,
      "Ġhangganan": 7311,
      "Tin": 7312,
      "bum": 7313,
      "dness": 7314,
      "ĠPina": 7315,
      "ĠMAS": 7316,
      "rod": 7317,
      "Ġisaalang": 7318,
      "Ġ2022": 7319,
      "angkilik": 7320,
      "Ġabot": 7321,
      "ression": 7322,
      "Ġidin": 7323,
      "Ġnetizens": 7324,
      "Ġuring": 7325,
      "Ġhubad": 7326,
      "ĠIP": 7327,
      "Ġnanging": 7328,
      "ĠIbig": 7329,
      "ĠSenado": 7330,
      "orial": 7331,
      "ĠBuhay": 7332,
      "ĠKah": 7333,
      "ĠHon": 7334,
      "save": 7335,
      "anse": 7336,
      "Ġkarunungan": 7337,
      "umpirma": 7338,
      "Ġ500": 7339,
      "Ġmamaya": 7340,
      "ĠUkraine": 7341,
      "vious": 7342,
      "Ġsorry": 7343,
      "Ġpilipino": 7344,
      "akip": 7345,
      "ĠCalifornia": 7346,
      "ĠHigit": 7347,
      "Ġnagdudulot": 7348,
      "Ġthank": 7349,
      "ĠDistr": 7350,
      "Ġkurso": 7351,
      "Ġmanagement": 7352,
      "Ġkinatawan": 7353,
      "ences": 7354,
      "dez": 7355,
      "ĠDecember": 7356,
      "cc": 7357,
      "Ġkorte": 7358,
      "ĠPap": 7359,
      "diin": 7360,
      "aching": 7361,
      "ĠGonz": 7362,
      "ĠApril": 7363,
      "ĠCourt": 7364,
      "Ġpawang": 7365,
      "inos": 7366,
      "ANO": 7367,
      "Ġmaramdaman": 7368,
      "Ġbank": 7369,
      "umpa": 7370,
      "Ġbigat": 7371,
      "Ġsine": 7372,
      "Ġlasa": 7373,
      "ĠSu": 7374,
      "ipad": 7375,
      "ĠLab": 7376,
      "thers": 7377,
      "Ġbuy": 7378,
      "INO": 7379,
      "Ġbabalik": 7380,
      "iliman": 7381,
      "wood": 7382,
      "uper": 7383,
      "Ġvesnush": 7384,
      "Ġ--": 7385,
      "serb": 7386,
      "Ġdirector": 7387,
      "Parang": 7388,
      "Ġgym": 7389,
      "Ġniyog": 7390,
      "ĠSw": 7391,
      "Ġwal": 7392,
      "Ġobl": 7393,
      "Ġmaabot": 7394,
      "ĠRiver": 7395,
      "Ġaff": 7396,
      "Ġpagsulat": 7397,
      "Ġusing": 7398,
      "à¦¾": 7399,
      "Ġcastor": 7400,
      "My": 7401,
      "Par": 7402,
      "abuso": 7403,
      "ĠMama": 7404,
      "Ġkahon": 7405,
      "anapin": 7406,
      "Ġmagpapat": 7407,
      "Ġpagbabagong": 7408,
      "ĠCounc": 7409,
      "Ġpanlipunan": 7410,
      "Ġblock": 7411,
      "Ġbangko": 7412,
      "Ġsupply": 7413,
      "37": 7414,
      "nie": 7415,
      "ĠHot": 7416,
      "ĠRub": 7417,
      "ĠAlem": 7418,
      "Ġworkers": 7419,
      "ĠSenador": 7420,
      "isiplina": 7421,
      "unyag": 7422,
      "Ġistor": 7423,
      "icol": 7424,
      "ĠCor": 7425,
      "ellow": 7426,
      "ĠMagk": 7427,
      "ĠAyaw": 7428,
      "Ikaw": 7429,
      "If": 7430,
      "alog": 7431,
      "igation": 7432,
      "Ġbinuo": 7433,
      "Ġaward": 7434,
      "ĠEnter": 7435,
      "Ġnagkakaroon": 7436,
      "ĠGarcia": 7437,
      "Jo": 7438,
      "Kum": 7439,
      "SP": 7440,
      "ĠDam": 7441,
      "ĠYO": 7442,
      "umpati": 7443,
      "Ġlimitasyon": 7444,
      "arantine": 7445,
      "Ġpanibagong": 7446,
      "dahan": 7447,
      "Ġbida": 7448,
      "Ġwel": 7449,
      "idong": 7450,
      "Ġumanong": 7451,
      "Ġbumubuo": 7452,
      "Ġpwet": 7453,
      "Ġharapin": 7454,
      "ĠKomun": 7455,
      "ernador": 7456,
      "Ġbed": 7457,
      "eso": 7458,
      "ĠPublic": 7459,
      "ĠCR": 7460,
      "ĠCons": 7461,
      "ugatan": 7462,
      "ĠEle": 7463,
      "ended": 7464,
      "Ġplant": 7465,
      "Ġcourt": 7466,
      "Ġpresyon": 7467,
      "Ġsanay": 7468,
      "crip": 7469,
      "off": 7470,
      "Ġsosyal": 7471,
      "erto": 7472,
      "Ġpakinabang": 7473,
      "Ġkaraniwan": 7474,
      "vention": 7475,
      "Ġitsura": 7476,
      "bos": 7477,
      "Ġnauna": 7478,
      "Ġtong": 7479,
      "ĠAK": 7480,
      "ĠSkin": 7481,
      "ĠTan": 7482,
      "unahang": 7483,
      "Ġkase": 7484,
      "Ġpagtut": 7485,
      "ournal": 7486,
      "Ġkilusan": 7487,
      "ĠEspanyol": 7488,
      "Ġguest": 7489,
      "Ġcollege": 7490,
      "Ġpagkahulog": 7491,
      "ht": 7492,
      "akes": 7493,
      "ĠAugust": 7494,
      "Ġalit": 7495,
      "Ġtraining": 7496,
      "ĠNagl": 7497,
      "anced": 7498,
      "Ġkliyente": 7499,
      "EST": 7500,
      "ango": 7501,
      "unl": 7502,
      "uweb": 7503,
      "ekan": 7504,
      "Ġchance": 7505,
      "Ġnagbago": 7506,
      "Ġinternational": 7507,
      "Ġdrama": 7508,
      "Ġganoong": 7509,
      "----------------": 7510,
      "'re": 7511,
      "med": 7512,
      "Ġpinakas": 7513,
      "ĠTagapag": 7514,
      "Ġnutrisyon": 7515,
      "Ġmambabasa": 7516,
      "alayo": 7517,
      "umo": 7518,
      "oting": 7519,
      "Ġkateg": 7520,
      "ungkulan": 7521,
      "Ġadres": 7522,
      "Ġkapakanan": 7523,
      "Kat": 7524,
      "agatan": 7525,
      "Ġmalungkot": 7526,
      "ĠFound": 7527,
      "Ġbagaman": 7528,
      "Ġpattern": 7529,
      "Ġnagsasabing": 7530,
      "banghelyo": 7531,
      "EO": 7532,
      "Ġic": 7533,
      "Ġmoral": 7534,
      "ulation": 7535,
      "iyahe": 7536,
      "Ġfair": 7537,
      "Ġtumaas": 7538,
      "Isulat": 7539,
      "ĠYouTube": 7540,
      "ihirapan": 7541,
      "ĠRoma": 7542,
      "Ġresponsibilidad": 7543,
      "ĠSapagka": 7544,
      "38": 7545,
      "boy": 7546,
      "ÃĹ": 7547,
      "Ġble": 7548,
      "dium": 7549,
      "ĠJeho": 7550,
      "Ġmagbayad": 7551,
      "Ġsentro": 7552,
      "Ġhold": 7553,
      "ĠAP": 7554,
      "Ġmalubhang": 7555,
      "ĠAnne": 7556,
      "Ġsinimulan": 7557,
      "ĠMayroong": 7558,
      "ĠDirek": 7559,
      "Ġmagtat": 7560,
      "Ġdayuhang": 7561,
      "atibo": 7562,
      "Ġtotal": 7563,
      "Ġisama": 7564,
      "istor": 7565,
      "umbalik": 7566,
      "Ġdoes": 7567,
      "ĠBitcoin": 7568,
      "SW": 7569,
      "eign": 7570,
      "Ġ)": 7571,
      "Ġnaroon": 7572,
      "aryong": 7573,
      "ilyong": 7574,
      "ads": 7575,
      "Ġworking": 7576,
      "posisyon": 7577,
      "Kailangan": 7578,
      "ground": 7579,
      "ml": 7580,
      "atlo": 7581,
      "Ġkinas": 7582,
      "Ġdip": 7583,
      "roid": 7584,
      "eyl": 7585,
      "amahalaan": 7586,
      "Ġmodel": 7587,
      "ipedia": 7588,
      "anyos": 7589,
      "Ġofficial": 7590,
      "ĠCouncil": 7591,
      "Un": 7592,
      "Ñģ": 7593,
      "Ġsala": 7594,
      "ungol": 7595,
      "Ġfew": 7596,
      "ĠSystem": 7597,
      "ĠBonifacio": 7598,
      "ĠAssociation": 7599,
      "Ġpoker": 7600,
      "ĠPR": 7601,
      "ĠPark": 7602,
      "Ġpamahid": 7603,
      "obs": 7604,
      "grap": 7605,
      "Ġseason": 7606,
      "gusto": 7607,
      "ymp": 7608,
      "Ġkuting": 7609,
      "igaya": 7610,
      "upang": 7611,
      "rian": 7612,
      "Ġrelationship": 7613,
      "dom": 7614,
      "Ġmabait": 7615,
      "Ġparents": 7616,
      "ĠTR": 7617,
      "Ġalok": 7618,
      "Ġsinal": 7619,
      "intulutan": 7620,
      "abase": 7621,
      "gether": 7622,
      "ĠParty": 7623,
      "Ġmenu": 7624,
      "Ġkapalaran": 7625,
      "IO": 7626,
      "ĠSim": 7627,
      "Ġakt": 7628,
      "Ġmalayang": 7629,
      "udad": 7630,
      "ried": 7631,
      "appy": 7632,
      "Ġpaborito": 7633,
      "Ġprobinsya": 7634,
      "Ġiwasan": 7635,
      "Ġmina": 7636,
      "atong": 7637,
      "agaw": 7638,
      "ingo": 7639,
      "Ġworks": 7640,
      "entro": 7641,
      "ĠEv": 7642,
      "ilanganin": 7643,
      "Ġpinoy": 7644,
      "Ġpaghihirap": 7645,
      "ĠIsab": 7646,
      "avor": 7647,
      "Ġbuksan": 7648,
      "Ġsulok": 7649,
      "tas": 7650,
      "ĠMed": 7651,
      "Ġwords": 7652,
      "ĠBatas": 7653,
      "ubot": 7654,
      "ugas": 7655,
      "Ġvisa": 7656,
      "Ġpagtugon": 7657,
      "ilar": 7658,
      "ĠMaya": 7659,
      "Ġgagawa": 7660,
      "Ġvide": 7661,
      "abangan": 7662,
      "Ġopsyon": 7663,
      "Ġminimum": 7664,
      "Ġpananakit": 7665,
      "ĠHeart": 7666,
      "???": 7667,
      "Ġchildren": 7668,
      "Ġkaba": 7669,
      "ibit": 7670,
      "ĠPH": 7671,
      "ĠPlay": 7672,
      "omend": 7673,
      "ĠWork": 7674,
      "Ġgrupong": 7675,
      "Ġhinihintay": 7676,
      "Ġbiyaya": 7677,
      "Ġprinsipyo": 7678,
      "Ġnipples": 7679,
      "Ġhospital": 7680,
      "ened": 7681,
      "usga": 7682,
      "ĠNaka": 7683,
      "Ġmasis": 7684,
      "ĠLet": 7685,
      "tract": 7686,
      "Ġnagsus": 7687,
      "Ġpyat": 7688,
      "alab": 7689,
      "apr": 7690,
      "ungaling": 7691,
      "âĢł": 7692,
      "Ġmov": 7693,
      "Ġsaklaw": 7694,
      "akatuparan": 7695,
      "ĠNais": 7696,
      "Ġcarbo": 7697,
      "Ġpuntos": 7698,
      "viron": 7699,
      "Ġpataas": 7700,
      "Ġtirahan": 7701,
      "Ġbisa": 7702,
      "erong": 7703,
      "ipal": 7704,
      "astong": 7705,
      "alize": 7706,
      "Ġpaglipat": 7707,
      "Ġabala": 7708,
      "Ġpwersa": 7709,
      "Ġallow": 7710,
      "tomatikong": 7711,
      "For": 7712,
      "erb": 7713,
      "ĠAS": 7714,
      "ĠBir": 7715,
      "Ġsinag": 7716,
      "iven": 7717,
      "ĠPeople": 7718,
      "Ġtodo": 7719,
      "ĠSimbahan": 7720,
      "Gan": 7721,
      "Ġcurr": 7722,
      "leep": 7723,
      "ayaang": 7724,
      "Ġlumalaki": 7725,
      "Ġnabab": 7726,
      "Ġbigyang": 7727,
      "Ġmagpa": 7728,
      "lima": 7729,
      "Ġdesign": 7730,
      "Ġserbisyong": 7731,
      "uthority": 7732,
      "Ġsuccess": 7733,
      "Ġlalamunan": 7734,
      "Ġkadalasan": 7735,
      "libong": 7736,
      "Ġkc": 7737,
      "Ġeconom": 7738,
      "ĠGloria": 7739,
      "Ġinsurance": 7740,
      "lap": 7741,
      "lot": 7742,
      "sign": 7743,
      "Ġkor": 7744,
      "uluyan": 7745,
      "Ġpangalang": 7746,
      "Ġpangino": 7747,
      "Ġlock": 7748,
      "Ġnagsalita": 7749,
      "Ġfirstname": 7750,
      "ĠAND": 7751,
      "Ed": 7752,
      "fort": 7753,
      "like": 7754,
      "Ġwww": 7755,
      "Ġtravel": 7756,
      "Ġimeyl": 7757,
      "Ġbakla": 7758,
      "Ġpaboritong": 7759,
      "Ġstock": 7760,
      "UK": 7761,
      "enan": 7762,
      "Ġbust": 7763,
      "onekta": 7764,
      "Ġmalaya": 7765,
      "ineb": 7766,
      "ateo": 7767,
      "Ġtrap": 7768,
      "Ġpaglaban": 7769,
      "Ġsumulat": 7770,
      "Ġnatitirang": 7771,
      "usalem": 7772,
      "Ġinclud": 7773,
      "Ġphys": 7774,
      "To": 7775,
      "ĠST": 7776,
      "Ġprakt": 7777,
      "ĠAtty": 7778,
      "Ġelement": 7779,
      "Ġhttps": 7780,
      "Ġminamahal": 7781,
      "vironment": 7782,
      "Ġbol": 7783,
      "icles": 7784,
      "Ġvis": 7785,
      "ĠNagt": 7786,
      "lands": 7787,
      "Ġkahilingan": 7788,
      "say": 7789,
      "Ġrom": 7790,
      "Ġbili": 7791,
      "abatas": 7792,
      "ĠLot": 7793,
      "Ġresol": 7794,
      "Ġservices": 7795,
      "***": 7796,
      "Ġleb": 7797,
      "Ġlif": 7798,
      "ĠAfter": 7799,
      "Ġpinakabagong": 7800,
      "Ġwhite": 7801,
      "Ġfact": 7802,
      "Ġinstr": 7803,
      "Ġpananag": 7804,
      "Ġ2004": 7805,
      "Ġengine": 7806,
      "Kabilang": 7807,
      "Ġtable": 7808,
      "update": 7809,
      "Ġmatit": 7810,
      "ambo": 7811,
      "Ġdaloy": 7812,
      "Ġbrief": 7813,
      "Mayroon": 7814,
      "Ġahente": 7815,
      "Ġkonti": 7816,
      "aho": 7817,
      "ĠJun": 7818,
      "ĠOb": 7819,
      "Ġkahinaan": 7820,
      "bre": 7821,
      "yadong": 7822,
      "Ġmac": 7823,
      "erv": 7824,
      "enjoy": 7825,
      "yaan": 7826,
      "ugalian": 7827,
      "Ġmakarating": 7828,
      "ĠED": 7829,
      "Ġpumapasok": 7830,
      "ĠShow": 7831,
      "ashion": 7832,
      "ĠKatoliko": 7833,
      "Ġsuliranin": 7834,
      "VE": 7835,
      "Ġcre": 7836,
      "ĠBet": 7837,
      "ĠHall": 7838,
      "ĠFilipinas": 7839,
      "Ġnaglalakad": 7840,
      "Ġclay": 7841,
      "Ġkakaiba": 7842,
      "ĠChristmas": 7843,
      "Halimbawa": 7844,
      "Ġkandidato": 7845,
      "34": 7846,
      "Ġugnayan": 7847,
      "iki": 7848,
      "ektong": 7849,
      "ĠFestival": 7850,
      "Ġpaglalarawan": 7851,
      "Ġpasilidad": 7852,
      "Ġkomposisyon": 7853,
      "Ġur": 7854,
      "Ġdate": 7855,
      "Ġmaya": 7856,
      "Ġnakatingin": 7857,
      "aria": 7858,
      "ĠComp": 7859,
      "Ġtangh": 7860,
      "nasyonal": 7861,
      "ĠBitamina": 7862,
      "iisang": 7863,
      "Ġmant": 7864,
      "erry": 7865,
      "usyong": 7866,
      "ĠTimbang": 7867,
      "Ġnakakita": 7868,
      "Ġmatandang": 7869,
      "ĠJack": 7870,
      "udyo": 7871,
      "Ġadvert": 7872,
      "Ġ196": 7873,
      "Ġimah": 7874,
      "Ġsinger": 7875,
      "Ġdaang": 7876,
      "Ġeksaktong": 7877,
      "Buhok": 7878,
      "Ġtala": 7879,
      "ĠFeb": 7880,
      "ĠJoy": 7881,
      "Ġbinili": 7882,
      "Ġpagsusulat": 7883,
      "Ġbaldness": 7884,
      "ological": 7885,
      "anyag": 7886,
      "Ġsiguradong": 7887,
      "Ġpharmacy": 7888,
      "Ġreason": 7889,
      "ĠGreen": 7890,
      "ĠFel": 7891,
      "Ġalinsunod": 7892,
      "Ġkabataang": 7893,
      "Ġtagahanga": 7894,
      "Ġnegatibong": 7895,
      "ipsip": 7896,
      "ĠRussia": 7897,
      "LO": 7898,
      "UH": 7899,
      "antot": 7900,
      "ihinto": 7901,
      "ambag": 7902,
      "Ġperpekto": 7903,
      "Ġvacc": 7904,
      "Ġpun": 7905,
      "ability": 7906,
      "Ġisas": 7907,
      "Ġpamagat": 7908,
      "Ġvi": 7909,
      "andaang": 7910,
      "untang": 7911,
      "Ġnaranasan": 7912,
      "men": 7913,
      "ãĢ": 7914,
      "Ġtalak": 7915,
      "ĠNot": 7916,
      "ĠIG": 7917,
      "Ġtogether": 7918,
      "Ġkakilala": 7919,
      "Ġcookies": 7920,
      "ĠSatanas": 7921,
      "ĠMam": 7922,
      "ĠMukha": 7923,
      "ĠSP": 7924,
      "ĠHil": 7925,
      "Ġsumama": 7926,
      "Ġartist": 7927,
      "Ġnatutulog": 7928,
      "ral": 7929,
      "Ġanghel": 7930,
      "Ġhiling": 7931,
      "Ġnakakatulong": 7932,
      "Ġauto": 7933,
      "Ġkalye": 7934,
      "ampo": 7935,
      "Ġunderst": 7936,
      "walang": 7937,
      "Ġkuk": 7938,
      "amental": 7939,
      "Ġipinas": 7940,
      "Ġpagpapanatili": 7941,
      "Ġtumagal": 7942,
      "Ġ80": 7943,
      "Ġpolice": 7944,
      "epektibong": 7945,
      "Ad": 7946,
      "Siya": 7947,
      "aaralan": 7948,
      "lase": 7949,
      "mb": 7950,
      "Ġtanaw": 7951,
      "Ġball": 7952,
      "Ġhuh": 7953,
      "Ġmakakat": 7954,
      "Ġkaliwang": 7955,
      "Ġ2006": 7956,
      "ĠJustice": 7957,
      "32": 7958,
      "kong": 7959,
      "Ġdeg": 7960,
      "inatnan": 7961,
      "Ġ70": 7962,
      "Ġfront": 7963,
      "xt": 7964,
      "ingay": 7965,
      "ingisda": 7966,
      "ĠSuso": 7967,
      "ĠKAMI": 7968,
      "Ġmabisang": 7969,
      "Ġstage": 7970,
      "Ġable": 7971,
      "ĠMags": 7972,
      "sych": 7973,
      "lation": 7974,
      "oni": 7975,
      "Ġdest": 7976,
      "abuhay": 7977,
      "osp": 7978,
      "acay": 7979,
      "Ġproblem": 7980,
      "Ġ2005": 7981,
      "Ġpagmaman": 7982,
      "rr": 7983,
      "Ø±": 7984,
      "Ġir": 7985,
      "ĠSeptember": 7986,
      "Ġgast": 7987,
      "Ġmater": 7988,
      "ĠâĢ¢": 7989,
      "Ġmapan": 7990,
      "Ġsalapi": 7991,
      "ĠLuis": 7992,
      "Ġbrowser": 7993,
      "taurant": 7994,
      "mak": 7995,
      "ikado": 7996,
      "Ġfa": 7997,
      "Ġpagtulong": 7998,
      "Ġbahala": 7999,
      "Ġpaghahatid": 8000,
      "apital": 8001,
      "Ġprivate": 8002,
      "eklara": 8003,
      "Kasama": 8004,
      "Ġkrus": 8005,
      "Ġtits": 8006,
      "ĠMore": 8007,
      "ĠCavite": 8008,
      "Ġmajor": 8009,
      "ĠWell": 8010,
      "orning": 8011,
      "):": 8012,
      "ï¼": 8013,
      "Ġdamo": 8014,
      "Ġhayaan": 8015,
      "ĠJay": 8016,
      "ensity": 8017,
      "anahunan": 8018,
      "ikip": 8019,
      "imas": 8020,
      "urusa": 8021,
      "Ġperiod": 8022,
      "box": 8023,
      "Ġnahih": 8024,
      "Ġtransaksyon": 8025,
      "Ġyaon": 8026,
      "Ġtanungin": 8027,
      "Ġtuhod": 8028,
      "ibilang": 8029,
      "Ġcert": 8030,
      "Ġmakapal": 8031,
      "Ġnagbabago": 8032,
      "Ġimpormasyong": 8033,
      "Ġorganis": 8034,
      "Ġtimes": 8035,
      "tanggol": 8036,
      "Ġkanan": 8037,
      "iness": 8038,
      "Ġband": 8039,
      "isya": 8040,
      "unita": 8041,
      "Ġgalaw": 8042,
      "Ġcreat": 8043,
      "ueva": 8044,
      "ĠNangang": 8045,
      "ĠSenate": 8046,
      "Ġpamilyang": 8047,
      "ĠMakati": 8048,
      "aong": 8049,
      "zan": 8050,
      "Ġlate": 8051,
      "Ġlakad": 8052,
      "ĠGold": 8053,
      "Ġaalis": 8054,
      "Ġtalk": 8055,
      "ruary": 8056,
      "inaryong": 8057,
      "ĠSea": 8058,
      "Ġquestion": 8059,
      "Pum": 8060,
      "organ": 8061,
      "Ġpatayin": 8062,
      "Ġkoneksyon": 8063,
      "ergency": 8064,
      "Ġbetween": 8065,
      "just": 8066,
      "yano": 8067,
      "Ġsibil": 8068,
      "akong": 8069,
      "Ġlol": 8070,
      "ugol": 8071,
      "char": 8072,
      "Ġkalahat": 8073,
      "Ġnabuo": 8074,
      "ulturang": 8075,
      "Ġproblemang": 8076,
      "Ġepisode": 8077,
      "Ġipinapakita": 8078,
      "adalasan": 8079,
      "ĠJehova": 8080,
      "Minsan": 8081,
      "On": 8082,
      "ker": 8083,
      "wat": 8084,
      "Ġtips": 8085,
      "Ġhandang": 8086,
      "osit": 8087,
      "idel": 8088,
      "ĠDem": 8089,
      "Ġkaarawan": 8090,
      "Ġpagbasa": 8091,
      "Ġtulang": 8092,
      "Ġginag": 8093,
      "Ġpartic": 8094,
      "Ġteor": 8095,
      "ĠService": 8096,
      "Ġtarugo": 8097,
      "ripisyo": 8098,
      "nÑĭ": 8099,
      "xy": 8100,
      "Ġalag": 8101,
      "ĠØ§ÙĦ": 8102,
      "Ġhit": 8103,
      "abong": 8104,
      "rey": 8105,
      "ential": 8106,
      "antimp": 8107,
      "Ġkaliwa": 8108,
      "Ġtatanggap": 8109,
      "Ġnagkas": 8110,
      "ĠProp": 8111,
      "Ġsaglit": 8112,
      "Ġbiyahe": 8113,
      "Ġguys": 8114,
      "39": 8115,
      "pm": 8116,
      "Ġmekan": 8117,
      "akbay": 8118,
      "Ġrece": 8119,
      "Ġmagsagawa": 8120,
      "Ġpanukala": 8121,
      "Be": 8122,
      "Ġgabing": 8123,
      "Ġstep": 8124,
      "Ġpanuntunan": 8125,
      "Ġpagpunta": 8126,
      "blog": 8127,
      "Ġeleksyon": 8128,
      "Ġhealthy": 8129,
      "deng": 8130,
      "ÑĢ": 8131,
      "Ġkem": 8132,
      "ilinis": 8133,
      "ungong": 8134,
      "ĠDark": 8135,
      "Ġnapakalaking": 8136,
      "Ġsandata": 8137,
      "ĠPrin": 8138,
      "Hi": 8139,
      "Ġpapat": 8140,
      "Ġbayang": 8141,
      "Ġpaminta": 8142,
      "angguni": 8143,
      "Ġdiabetes": 8144,
      "Ġbumagsak": 8145,
      "ĠKapamilya": 8146,
      "uklas": 8147,
      "Ġalaala": 8148,
      "70": 8149,
      "Good": 8150,
      "song": 8151,
      "Ġparaang": 8152,
      "ĠTor": 8153,
      "ĠGet": 8154,
      "Ġpamayanan": 8155,
      "ooo": 8156,
      "AYAN": 8157,
      "Ġpuwet": 8158,
      "Ġhugas": 8159,
      "mula": 8160,
      "Ġpormal": 8161,
      "Ġbark": 8162,
      "Ġcent": 8163,
      "icky": 8164,
      "ðĿĲ": 8165,
      "Ġkit": 8166,
      "Ġboss": 8167,
      "ĠPwede": 8168,
      "ĠDennis": 8169,
      "ĠTha": 8170,
      "ĠâĢĿ": 8171,
      "obe": 8172,
      "Ġpagtanggal": 8173,
      "ĠAkala": 8174,
      "igurado": 8175,
      "Ġnobela": 8176,
      "Ġeksperto": 8177,
      "hay": 8178,
      "iful": 8179,
      "Ġpumayag": 8180,
      "Ġsanaysay": 8181,
      "Ġpantao": 8182,
      "Ġhawakan": 8183,
      "ĠPadilla": 8184,
      "bin": 8185,
      "Ġmill": 8186,
      "akop": 8187,
      "isenyo": 8188,
      "ĠAfr": 8189,
      "Ġarm": 8190,
      "Ġimposible": 8191
    },
    "merges": [
      [
        "n",
        "g"
      ],
      [
        "a",
        "ng"
      ],
      [
        "n",
        "a"
      ],
      [
        "Ġ",
        "s"
      ],
      [
        "Ġ",
        "m"
      ],
      [
        "a",
        "n"
      ],
      [
        "Ġ",
        "p"
      ],
      [
        "Ġ",
        "na"
      ],
      [
        "a",
        "t"
      ],
      [
        "Ġs",
        "a"
      ],
      [
        "a",
        "l"
      ],
      [
        "a",
        "g"
      ],
      [
        "Ġ",
        "k"
      ],
      [
        "Ġ",
        "ng"
      ],
      [
        "a",
        "y"
      ],
      [
        "i",
        "n"
      ],
      [
        "i",
        "t"
      ],
      [
        "a",
        "r"
      ],
      [
        "Ġ",
        "ang"
      ],
      [
        "a",
        "s"
      ],
      [
        "Ġ",
        "t"
      ],
      [
        "i",
        "l"
      ],
      [
        "g",
        "a"
      ],
      [
        "a",
        "k"
      ],
      [
        "Ġ",
        "b"
      ],
      [
        "a",
        "m"
      ],
      [
        "i",
        "s"
      ],
      [
        "o",
        "n"
      ],
      [
        "i",
        "ng"
      ],
      [
        "Ġm",
        "ga"
      ],
      [
        "Ġ",
        "n"
      ],
      [
        "e",
        "r"
      ],
      [
        "Ġ",
        "l"
      ],
      [
        "Ġ",
        "d"
      ],
      [
        "a",
        "h"
      ],
      [
        "a",
        "p"
      ],
      [
        "Ġ",
        "at"
      ],
      [
        "o",
        "ng"
      ],
      [
        "Ġ",
        "h"
      ],
      [
        "a",
        "b"
      ],
      [
        "u",
        "l"
      ],
      [
        "Ġp",
        "ag"
      ],
      [
        "i",
        "y"
      ],
      [
        "Ġ",
        "ay"
      ],
      [
        "i",
        "na"
      ],
      [
        "a",
        "w"
      ],
      [
        "e",
        "s"
      ],
      [
        "u",
        "m"
      ],
      [
        "o",
        "r"
      ],
      [
        "e",
        "n"
      ],
      [
        "i",
        "b"
      ],
      [
        "i",
        "g"
      ],
      [
        "a",
        "d"
      ],
      [
        "u",
        "n"
      ],
      [
        "u",
        "ng"
      ],
      [
        "u",
        "s"
      ],
      [
        "â",
        "Ģ"
      ],
      [
        "Ġ",
        "A"
      ],
      [
        "i",
        "k"
      ],
      [
        "Ġ",
        "is"
      ],
      [
        "o",
        "s"
      ],
      [
        "Ġ",
        "P"
      ],
      [
        "Ġ",
        "M"
      ],
      [
        "it",
        "o"
      ],
      [
        "r",
        "e"
      ],
      [
        "Ġ",
        "S"
      ],
      [
        "Ġ",
        "g"
      ],
      [
        "Ġp",
        "ar"
      ],
      [
        "i",
        "m"
      ],
      [
        "d",
        "i"
      ],
      [
        "i",
        "p"
      ],
      [
        "r",
        "o"
      ],
      [
        "Ġ",
        "w"
      ],
      [
        "Ġ",
        "o"
      ],
      [
        "t",
        "o"
      ],
      [
        "a",
        "na"
      ],
      [
        "Ġ",
        "c"
      ],
      [
        "Ġm",
        "ag"
      ],
      [
        "Ġna",
        "g"
      ],
      [
        "u",
        "t"
      ],
      [
        "Ġk",
        "o"
      ],
      [
        "iy",
        "a"
      ],
      [
        "u",
        "r"
      ],
      [
        "in",
        "di"
      ],
      [
        "il",
        "ang"
      ],
      [
        "Ġpar",
        "a"
      ],
      [
        "Ġk",
        "an"
      ],
      [
        "Ġ",
        "ak"
      ],
      [
        "an",
        "d"
      ],
      [
        "u",
        "p"
      ],
      [
        "Ġis",
        "ang"
      ],
      [
        "e",
        "l"
      ],
      [
        "u",
        "h"
      ],
      [
        "o",
        "t"
      ],
      [
        "Ġ",
        "f"
      ],
      [
        "i",
        "d"
      ],
      [
        "al",
        "a"
      ],
      [
        "o",
        "l"
      ],
      [
        "Ġt",
        "h"
      ],
      [
        "Ġ",
        "B"
      ],
      [
        "Ġ",
        "K"
      ],
      [
        "i",
        "c"
      ],
      [
        "Ġp",
        "a"
      ],
      [
        "u",
        "k"
      ],
      [
        "Ġ",
        "N"
      ],
      [
        "Ġ",
        "ito"
      ],
      [
        "Ġ",
        "I"
      ],
      [
        "y",
        "o"
      ],
      [
        "e",
        "d"
      ],
      [
        "Ġ",
        "D"
      ],
      [
        "i",
        "r"
      ],
      [
        "o",
        "k"
      ],
      [
        "Ġ",
        "C"
      ],
      [
        "Ġn",
        "i"
      ],
      [
        "en",
        "t"
      ],
      [
        "Ġm",
        "ay"
      ],
      [
        "e",
        "t"
      ],
      [
        "y",
        "a"
      ],
      [
        "Ġk",
        "ung"
      ],
      [
        "Ġ",
        "T"
      ],
      [
        "Ġ",
        "in"
      ],
      [
        "Ġh",
        "indi"
      ],
      [
        "Ġ",
        "r"
      ],
      [
        "y",
        "on"
      ],
      [
        "a",
        "c"
      ],
      [
        "il",
        "a"
      ],
      [
        "Ġna",
        "m"
      ],
      [
        "Ġna",
        "k"
      ],
      [
        "Ġk",
        "a"
      ],
      [
        "e",
        "m"
      ],
      [
        "an",
        "o"
      ],
      [
        "Ġ",
        "H"
      ],
      [
        "o",
        "d"
      ],
      [
        "o",
        "m"
      ],
      [
        "Ġm",
        "as"
      ],
      [
        "u",
        "b"
      ],
      [
        "u",
        "g"
      ],
      [
        "Ġm",
        "a"
      ],
      [
        "i",
        "on"
      ],
      [
        "Ġs",
        "i"
      ],
      [
        "y",
        "ang"
      ],
      [
        "Ġm",
        "ak"
      ],
      [
        "Ġp",
        "ang"
      ],
      [
        "Ġm",
        "al"
      ],
      [
        "Ġ",
        "L"
      ],
      [
        "l",
        "e"
      ],
      [
        "i",
        "h"
      ],
      [
        "Ġk",
        "ay"
      ],
      [
        "Ġth",
        "e"
      ],
      [
        "Ġpag",
        "k"
      ],
      [
        "Ġl",
        "ang"
      ],
      [
        "Ġ",
        "ib"
      ],
      [
        "Ġ",
        "re"
      ],
      [
        "ul",
        "a"
      ],
      [
        "Ġm",
        "o"
      ],
      [
        "Ġt",
        "a"
      ],
      [
        "Ġm",
        "at"
      ],
      [
        "Ġ",
        "e"
      ],
      [
        "it",
        "a"
      ],
      [
        "Ġ",
        "G"
      ],
      [
        "Ġak",
        "o"
      ],
      [
        "ĠA",
        "ng"
      ],
      [
        "u",
        "na"
      ],
      [
        "Ġk",
        "as"
      ],
      [
        "Ġ",
        "up"
      ],
      [
        "an",
        "t"
      ],
      [
        ".",
        "."
      ],
      [
        "Ġ",
        "âĢ"
      ],
      [
        "ah",
        "il"
      ],
      [
        "al",
        "ag"
      ],
      [
        "Ġ",
        "R"
      ],
      [
        "Ġ",
        "iy"
      ],
      [
        "s",
        "a"
      ],
      [
        "Ġt",
        "o"
      ],
      [
        "u",
        "w"
      ],
      [
        "Ġp",
        "am"
      ],
      [
        "Ġn",
        "ang"
      ],
      [
        "Ġn",
        "iya"
      ],
      [
        "Ġup",
        "ang"
      ],
      [
        "t",
        "a"
      ],
      [
        "Ġp",
        "ina"
      ],
      [
        "âĢ",
        "Ļ"
      ],
      [
        "Ġ",
        "("
      ],
      [
        "al",
        "ang"
      ],
      [
        "Ġ",
        "ga"
      ],
      [
        "i",
        "w"
      ],
      [
        "Ġo",
        "f"
      ],
      [
        "aw",
        "a"
      ],
      [
        "Ġb",
        "uh"
      ],
      [
        "âĢ",
        "Ŀ"
      ],
      [
        "ap",
        "at"
      ],
      [
        "Ġ",
        "E"
      ],
      [
        "al",
        "am"
      ],
      [
        "Ġnam",
        "an"
      ],
      [
        "ar",
        "i"
      ],
      [
        "e",
        "k"
      ],
      [
        "o",
        "g"
      ],
      [
        "Ġ",
        "1"
      ],
      [
        "al",
        "ak"
      ],
      [
        "Ġ",
        "y"
      ],
      [
        "Ġp",
        "ro"
      ],
      [
        "o",
        "b"
      ],
      [
        "Ġd",
        "ahil"
      ],
      [
        "Ġkan",
        "yang"
      ],
      [
        "Ġs",
        "iya"
      ],
      [
        "e",
        "c"
      ],
      [
        "Ġ",
        "F"
      ],
      [
        "Ġ",
        "and"
      ],
      [
        "Ġna",
        "t"
      ],
      [
        "Ġk",
        "at"
      ],
      [
        "ab",
        "a"
      ],
      [
        "Ġ",
        "it"
      ],
      [
        "Ġ",
        "J"
      ],
      [
        "Ġ",
        "2"
      ],
      [
        "am",
        "a"
      ],
      [
        "Ġ",
        "a"
      ],
      [
        "o",
        "y"
      ],
      [
        "p",
        "ap"
      ],
      [
        "il",
        "i"
      ],
      [
        "Ġ",
        "ar"
      ],
      [
        "t",
        "er"
      ],
      [
        "Ġb",
        "ag"
      ],
      [
        "ay",
        "a"
      ],
      [
        "ah",
        "at"
      ],
      [
        "at",
        "a"
      ],
      [
        "t",
        "r"
      ],
      [
        "ah",
        "an"
      ],
      [
        "er",
        "s"
      ],
      [
        "ap",
        "ag"
      ],
      [
        "iy",
        "ang"
      ],
      [
        "A",
        "ng"
      ],
      [
        "v",
        "e"
      ],
      [
        "am",
        "ang"
      ],
      [
        "Ġr",
        "in"
      ],
      [
        "Ġm",
        "ula"
      ],
      [
        "er",
        "o"
      ],
      [
        "o",
        "w"
      ],
      [
        "Ġk",
        "am"
      ],
      [
        "in",
        "o"
      ],
      [
        "w",
        "a"
      ],
      [
        "Ġ",
        "W"
      ],
      [
        "ar",
        "am"
      ],
      [
        "ay",
        "an"
      ],
      [
        "Ġiy",
        "ong"
      ],
      [
        "as",
        "yon"
      ],
      [
        "ang",
        "g"
      ],
      [
        "or",
        "m"
      ],
      [
        "o",
        "p"
      ],
      [
        "ak",
        "a"
      ],
      [
        "Ġ",
        "al"
      ],
      [
        "Ġd",
        "in"
      ],
      [
        "i",
        "e"
      ],
      [
        "ap",
        "os"
      ],
      [
        "es",
        "t"
      ],
      [
        "c",
        "h"
      ],
      [
        "Ġ",
        "an"
      ],
      [
        "il",
        "ip"
      ],
      [
        "Ġta",
        "o"
      ],
      [
        "es",
        "s"
      ],
      [
        "Ġ",
        "O"
      ],
      [
        "Ġm",
        "ah"
      ],
      [
        "is",
        "t"
      ],
      [
        "ĠâĢ",
        "ľ"
      ],
      [
        "Ġl",
        "ahat"
      ],
      [
        "Ġn",
        "ito"
      ],
      [
        "Ġbuh",
        "ok"
      ],
      [
        "un",
        "d"
      ],
      [
        "Ġkan",
        "ilang"
      ],
      [
        "y",
        "an"
      ],
      [
        "it",
        "an"
      ],
      [
        "at",
        "ion"
      ],
      [
        "in",
        "e"
      ],
      [
        "at",
        "e"
      ],
      [
        "Ġp",
        "ana"
      ],
      [
        "h",
        "a"
      ],
      [
        "im",
        "b"
      ],
      [
        "e",
        "p"
      ],
      [
        "Ġma",
        "a"
      ],
      [
        "alag",
        "a"
      ],
      [
        "o",
        "on"
      ],
      [
        "h",
        "e"
      ],
      [
        "Ġp",
        "o"
      ],
      [
        "Ġpag",
        "b"
      ],
      [
        "Ġd",
        "i"
      ],
      [
        "Ġ",
        "or"
      ],
      [
        "0",
        "0"
      ],
      [
        "an",
        "s"
      ],
      [
        "as",
        "t"
      ],
      [
        "ay",
        "o"
      ],
      [
        "b",
        "i"
      ],
      [
        "Ġp",
        "r"
      ],
      [
        "Ġk",
        "al"
      ],
      [
        "ar",
        "ing"
      ],
      [
        "Ġt",
        "r"
      ],
      [
        "ib",
        "ig"
      ],
      [
        "Ġk",
        "ah"
      ],
      [
        "na",
        "l"
      ],
      [
        "ĠS",
        "a"
      ],
      [
        "Ġ",
        "yo"
      ],
      [
        "Ġs",
        "ila"
      ],
      [
        "m",
        "it"
      ],
      [
        "Ġib",
        "a"
      ],
      [
        "Ġ",
        "ip"
      ],
      [
        "Ġ",
        "v"
      ],
      [
        "Ġ",
        "U"
      ],
      [
        "ay",
        "on"
      ],
      [
        "Ġ",
        "um"
      ],
      [
        "aw",
        "an"
      ],
      [
        "Ġk",
        "ab"
      ],
      [
        "and",
        "a"
      ],
      [
        "Ġm",
        "ab"
      ],
      [
        "Ġn",
        "ila"
      ],
      [
        "at",
        "ing"
      ],
      [
        "ar",
        "a"
      ],
      [
        "s",
        "t"
      ],
      [
        "l",
        "o"
      ],
      [
        "m",
        "ent"
      ],
      [
        "un",
        "t"
      ],
      [
        "Ġ",
        "as"
      ],
      [
        "Ġl",
        "amang"
      ],
      [
        "l",
        "y"
      ],
      [
        "al",
        "an"
      ],
      [
        "Ġk",
        "ap"
      ],
      [
        "Ġ",
        "am"
      ],
      [
        "Ġp",
        "at"
      ],
      [
        "ab",
        "ang"
      ],
      [
        "Ġpag",
        "s"
      ],
      [
        "y",
        "ong"
      ],
      [
        "d",
        "ib"
      ],
      [
        "t",
        "h"
      ],
      [
        "Ġt",
        "ul"
      ],
      [
        "Ġm",
        "an"
      ],
      [
        "Ġ",
        "on"
      ],
      [
        "Ġg",
        "ina"
      ],
      [
        "Ġw",
        "alang"
      ],
      [
        "Ġs",
        "ina"
      ],
      [
        "Ġpag",
        "pap"
      ],
      [
        "im",
        "p"
      ],
      [
        "in",
        "t"
      ],
      [
        "Ġkay",
        "a"
      ],
      [
        "al",
        "i"
      ],
      [
        "Ġpam",
        "am"
      ],
      [
        "v",
        "er"
      ],
      [
        "c",
        "e"
      ],
      [
        "Ġpa",
        "ano"
      ],
      [
        "Ġb",
        "a"
      ],
      [
        "ab",
        "as"
      ],
      [
        "en",
        "s"
      ],
      [
        "k",
        "a"
      ],
      [
        "Ġna",
        "p"
      ],
      [
        "am",
        "an"
      ],
      [
        "Ġl",
        "o"
      ],
      [
        "ung",
        "k"
      ],
      [
        "i",
        "al"
      ],
      [
        "or",
        "t"
      ],
      [
        "u",
        "d"
      ],
      [
        "Ġk",
        "um"
      ],
      [
        "Ġpag",
        "t"
      ],
      [
        "ib",
        "dib"
      ],
      [
        "Ġ",
        "il"
      ],
      [
        "l",
        "a"
      ],
      [
        "ana",
        "n"
      ],
      [
        "Ġt",
        "um"
      ],
      [
        "Ġb",
        "ah"
      ],
      [
        "ilang",
        "an"
      ],
      [
        "us",
        "o"
      ],
      [
        "al",
        "ing"
      ],
      [
        "e",
        "g"
      ],
      [
        "Ġf",
        "or"
      ],
      [
        "Ġk",
        "ar"
      ],
      [
        "e",
        "b"
      ],
      [
        "un",
        "it"
      ],
      [
        "en",
        "d"
      ],
      [
        "Ġmas",
        "k"
      ],
      [
        "i",
        "o"
      ],
      [
        "Ġd",
        "ibdib"
      ],
      [
        "al",
        "aw"
      ],
      [
        "Ġb",
        "ilang"
      ],
      [
        "ab",
        "i"
      ],
      [
        "âĢ",
        "ľ"
      ],
      [
        "Ġis",
        "a"
      ],
      [
        "Ġng",
        "a"
      ],
      [
        "Ġn",
        "o"
      ],
      [
        "u",
        "ro"
      ],
      [
        "ik",
        "a"
      ],
      [
        "Ġ",
        "i"
      ],
      [
        "Ġak",
        "ing"
      ],
      [
        "Ġ",
        "V"
      ],
      [
        "Ġs",
        "t"
      ],
      [
        "ag",
        "d"
      ],
      [
        "Ġsa",
        "r"
      ],
      [
        "Ġl",
        "um"
      ],
      [
        "Ġpag",
        "l"
      ],
      [
        "il",
        "l"
      ],
      [
        "as",
        "a"
      ],
      [
        "Ġs",
        "p"
      ],
      [
        "Ġm",
        "ap"
      ],
      [
        "Ġb",
        "at"
      ],
      [
        "ul",
        "ong"
      ],
      [
        "a",
        "in"
      ],
      [
        "al",
        "o"
      ],
      [
        "uh",
        "a"
      ],
      [
        "Ġs",
        "um"
      ],
      [
        "i",
        "a"
      ],
      [
        "ar",
        "t"
      ],
      [
        "h",
        "o"
      ],
      [
        "Ġar",
        "aw"
      ],
      [
        "A",
        "N"
      ],
      [
        "as",
        "an"
      ],
      [
        "Ġmag",
        "k"
      ],
      [
        "S",
        "a"
      ],
      [
        "alak",
        "i"
      ],
      [
        "Ġm",
        "aram"
      ],
      [
        "in",
        "s"
      ],
      [
        "ul",
        "at"
      ],
      [
        "us",
        "to"
      ],
      [
        "q",
        "u"
      ],
      [
        "in",
        "d"
      ],
      [
        "Ġmat",
        "a"
      ],
      [
        "Ġmaa",
        "aring"
      ],
      [
        "Ġg",
        "um"
      ],
      [
        "ak",
        "it"
      ],
      [
        "it",
        "y"
      ],
      [
        "at",
        "apos"
      ],
      [
        "ana",
        "k"
      ],
      [
        "al",
        "ik"
      ],
      [
        "e",
        "ng"
      ],
      [
        "ad",
        "o"
      ],
      [
        "Ġy",
        "ung"
      ],
      [
        "ih",
        "an"
      ],
      [
        "Ġ",
        "ano"
      ],
      [
        "Ġm",
        "ad"
      ],
      [
        "Ġpamam",
        "ag"
      ],
      [
        "ig",
        "h"
      ],
      [
        "o",
        "c"
      ],
      [
        "Ġd",
        "ito"
      ],
      [
        "Ġ",
        "\""
      ],
      [
        "Ġp",
        "ero"
      ],
      [
        "t",
        "or"
      ],
      [
        "ina",
        "s"
      ],
      [
        "us",
        "t"
      ],
      [
        "Ġ",
        "-"
      ],
      [
        "Ġp",
        "an"
      ],
      [
        "ĠA",
        "n"
      ],
      [
        "Ġnat",
        "in"
      ],
      [
        "ĠI",
        "n"
      ],
      [
        "h",
        "on"
      ],
      [
        "v",
        "ie"
      ],
      [
        "Ġbuh",
        "ay"
      ],
      [
        "Ġng",
        "ayon"
      ],
      [
        "ar",
        "d"
      ],
      [
        "agd",
        "ag"
      ],
      [
        "Ġpag",
        "ga"
      ],
      [
        "h",
        "h"
      ],
      [
        "Ġt",
        "ag"
      ],
      [
        "ak",
        "as"
      ],
      [
        "Ġb",
        "e"
      ],
      [
        "r",
        "i"
      ],
      [
        "Ġib",
        "ang"
      ],
      [
        "ag",
        "i"
      ],
      [
        "al",
        "im"
      ],
      [
        "Ġs",
        "in"
      ],
      [
        "Ġyo",
        "u"
      ],
      [
        "Ġd",
        "apat"
      ],
      [
        "..",
        "."
      ],
      [
        "Ġk",
        "ong"
      ],
      [
        "Ġ2",
        "0"
      ],
      [
        "ag",
        "o"
      ],
      [
        "l",
        "es"
      ],
      [
        "u",
        "an"
      ],
      [
        "id",
        "ad"
      ],
      [
        "ur",
        "i"
      ],
      [
        "al",
        "at"
      ],
      [
        "Ġsa",
        "an"
      ],
      [
        "Ġpina",
        "k"
      ],
      [
        "iy",
        "os"
      ],
      [
        "Ġn",
        "ya"
      ],
      [
        "ĠP",
        "ag"
      ],
      [
        "ul",
        "ang"
      ],
      [
        "ĠA",
        "t"
      ],
      [
        "Ġpar",
        "as"
      ],
      [
        "ina",
        "t"
      ],
      [
        "ar",
        "ap"
      ],
      [
        "am",
        "it"
      ],
      [
        "id",
        "e"
      ],
      [
        "ungk",
        "ol"
      ],
      [
        "ĠH",
        "indi"
      ],
      [
        "Ġno",
        "ong"
      ],
      [
        "Ġnag",
        "s"
      ],
      [
        "ĠA",
        "l"
      ],
      [
        "Ġp",
        "l"
      ],
      [
        "Ġb",
        "um"
      ],
      [
        "ic",
        "e"
      ],
      [
        "Ġnam",
        "in"
      ],
      [
        "Ġp",
        "ak"
      ],
      [
        "Ġc",
        "on"
      ],
      [
        "os",
        "t"
      ],
      [
        "Ġkam",
        "i"
      ],
      [
        "ana",
        "p"
      ],
      [
        "Ġsa",
        "l"
      ],
      [
        "Ġw",
        "ala"
      ],
      [
        "Ġm",
        "ong"
      ],
      [
        "m",
        "a"
      ],
      [
        "Ġb",
        "u"
      ],
      [
        "Ġm",
        "uk"
      ],
      [
        "Ġpamamag",
        "itan"
      ],
      [
        "una",
        "n"
      ],
      [
        "in",
        "ig"
      ],
      [
        "i",
        "v"
      ],
      [
        "Ġ",
        "Y"
      ],
      [
        "Ġ",
        "3"
      ],
      [
        "m",
        "ot"
      ],
      [
        "am",
        "p"
      ],
      [
        "Ġmag",
        "ing"
      ],
      [
        "it",
        "e"
      ],
      [
        "Ġl",
        "ab"
      ],
      [
        "Ġna",
        "sa"
      ],
      [
        "en",
        "to"
      ],
      [
        "Ġat",
        "ing"
      ],
      [
        "vie",
        "w"
      ],
      [
        "Ġkas",
        "i"
      ],
      [
        "angg",
        "ang"
      ],
      [
        "ĠK",
        "ung"
      ],
      [
        "Ġ",
        "ilang"
      ],
      [
        "Ġk",
        "ina"
      ],
      [
        "Ġ",
        "imp"
      ],
      [
        "âĢ",
        "¦"
      ],
      [
        "ig",
        "ing"
      ],
      [
        "Ġ",
        "j"
      ],
      [
        "Ġs",
        "h"
      ],
      [
        "Ġc",
        "h"
      ],
      [
        "un",
        "od"
      ],
      [
        "f",
        "f"
      ],
      [
        "it",
        "h"
      ],
      [
        "Ġkah",
        "it"
      ],
      [
        "Ġm",
        "e"
      ],
      [
        "ĠD",
        "iyos"
      ],
      [
        "Ġ",
        "ik"
      ],
      [
        "Ġ",
        "ac"
      ],
      [
        "Ġp",
        "al"
      ],
      [
        "imb",
        "ang"
      ],
      [
        "Ġsa",
        "k"
      ],
      [
        "u",
        "c"
      ],
      [
        "aw",
        "ala"
      ],
      [
        "Ġ",
        "un"
      ],
      [
        "p",
        "l"
      ],
      [
        "Ġ",
        "ina"
      ],
      [
        "Ġt",
        "ungkol"
      ],
      [
        "ul",
        "o"
      ],
      [
        "a",
        "a"
      ],
      [
        "il",
        "ing"
      ],
      [
        "Ġc",
        "om"
      ],
      [
        "er",
        "y"
      ],
      [
        "i",
        "f"
      ],
      [
        "ar",
        "oon"
      ],
      [
        "Ġkan",
        "ya"
      ],
      [
        "ĠM",
        "as"
      ],
      [
        "i",
        "ve"
      ],
      [
        "Ġr",
        "es"
      ],
      [
        "Ġpagk",
        "ak"
      ],
      [
        "Ġb",
        "an"
      ],
      [
        "alaw",
        "ang"
      ],
      [
        "ag",
        "awa"
      ],
      [
        "Ġh",
        "al"
      ],
      [
        "r",
        "a"
      ],
      [
        "ec",
        "t"
      ],
      [
        "ĠC",
        "h"
      ],
      [
        "p",
        "er"
      ],
      [
        "ar",
        "o"
      ],
      [
        "Ġt",
        "imbang"
      ],
      [
        "Ġth",
        "at"
      ],
      [
        "u",
        "re"
      ],
      [
        "Ġn",
        "iyang"
      ],
      [
        "Ġb",
        "aw"
      ],
      [
        "ĠM",
        "ay"
      ],
      [
        "Ġb",
        "aba"
      ],
      [
        "Ġh",
        "a"
      ],
      [
        "ur",
        "a"
      ],
      [
        "e",
        "x"
      ],
      [
        "em",
        "a"
      ],
      [
        "Ġp",
        "um"
      ],
      [
        "ang",
        "k"
      ],
      [
        "Ġpina",
        "g"
      ],
      [
        "Ġk",
        "on"
      ],
      [
        "e",
        "y"
      ],
      [
        "uh",
        "an"
      ],
      [
        "Ġmuk",
        "ha"
      ],
      [
        "ih",
        "in"
      ],
      [
        "ang",
        "ga"
      ],
      [
        "is",
        "m"
      ],
      [
        "Ġh",
        "abang"
      ],
      [
        "Ġh",
        "anggang"
      ],
      [
        "or",
        "e"
      ],
      [
        "Ġpag",
        "p"
      ],
      [
        "Ġw",
        "h"
      ],
      [
        "ĠP",
        "ilip"
      ],
      [
        "Ġ",
        "anak"
      ],
      [
        "na",
        "n"
      ],
      [
        "Ġ",
        "ag"
      ],
      [
        "Ġf",
        "ac"
      ],
      [
        "am",
        "b"
      ],
      [
        "it",
        "ong"
      ],
      [
        "Ġs",
        "iyang"
      ],
      [
        "Ġ",
        "alam"
      ],
      [
        ".",
        "âĢĿ"
      ],
      [
        "i",
        "an"
      ],
      [
        "Ġna",
        "s"
      ],
      [
        "r",
        "es"
      ],
      [
        "is",
        "ip"
      ],
      [
        "am",
        "ah"
      ],
      [
        "is",
        "yon"
      ],
      [
        "um",
        "p"
      ],
      [
        "Ġh",
        "e"
      ],
      [
        "Ġak",
        "ong"
      ],
      [
        "Ġlo",
        "ob"
      ],
      [
        "ar",
        "e"
      ],
      [
        "i",
        "z"
      ],
      [
        "Ġta",
        "on"
      ],
      [
        "u",
        "to"
      ],
[...]
